{
  "version": "1.0",
  "truncation": null,
  "padding": null,
  "added_tokens": [
    {
      "id": 0,
      "content": "<|endoftext|>",
      "single_word": false,
      "lstrip": false,
      "rstrip": false,
      "normalized": false,
      "special": true
    },
    {
      "id": 1,
      "content": "<|padding|>",
      "single_word": false,
      "lstrip": false,
      "rstrip": false,
      "normalized": false,
      "special": true
    },
    {
      "id": 2,
      "content": "<|im_start|>",
      "single_word": false,
      "lstrip": false,
      "rstrip": false,
      "normalized": false,
      "special": true
    },
    {
      "id": 3,
      "content": "<|im_end|>",
      "single_word": false,
      "lstrip": false,
      "rstrip": false,
      "normalized": false,
      "special": true
    }
  ],
  "normalizer": {
    "type": "NFC"
  },
  "pre_tokenizer": {
    "type": "Sequence",
    "pretokenizers": [
      {
        "type": "Split",
        "pattern": {
          "String": "@@"
        },
        "behavior": "Removed",
        "invert": false
      },
      {
        "type": "Split",
        "pattern": {
          "String": "([\\u0B80-\\u0BFF]+|[a-zA-Z]+|[0-9]+)"
        },
        "behavior": "Isolated",
        "invert": false
      },
      {
        "type": "ByteLevel",
        "add_prefix_space": false,
        "trim_offsets": true,
        "use_regex": true
      }
    ]
  },
  "post_processor": null,
  "decoder": {
    "type": "ByteLevel",
    "add_prefix_space": true,
    "trim_offsets": true,
    "use_regex": true
  },
  "model": {
    "type": "BPE",
    "dropout": null,
    "unk_token": null,
    "continuing_subword_prefix": null,
    "end_of_word_suffix": null,
    "fuse_unk": false,
    "byte_fallback": false,
    "ignore_merges": false,
    "vocab": {
      "<|endoftext|>": 0,
      "<|padding|>": 1,
      "<|im_start|>": 2,
      "<|im_end|>": 3,
      "!": 4,
      "\"": 5,
      "#": 6,
      "$": 7,
      "%": 8,
      "&": 9,
      "'": 10,
      "(": 11,
      ")": 12,
      "*": 13,
      "+": 14,
      ",": 15,
      "-": 16,
      ".": 17,
      "/": 18,
      "0": 19,
      "1": 20,
      "2": 21,
      "3": 22,
      "4": 23,
      "5": 24,
      "6": 25,
      "7": 26,
      "8": 27,
      "9": 28,
      ":": 29,
      ";": 30,
      "<": 31,
      "=": 32,
      ">": 33,
      "?": 34,
      "@": 35,
      "A": 36,
      "B": 37,
      "C": 38,
      "D": 39,
      "E": 40,
      "F": 41,
      "G": 42,
      "H": 43,
      "I": 44,
      "J": 45,
      "K": 46,
      "L": 47,
      "M": 48,
      "N": 49,
      "O": 50,
      "P": 51,
      "Q": 52,
      "R": 53,
      "S": 54,
      "T": 55,
      "U": 56,
      "V": 57,
      "W": 58,
      "X": 59,
      "Y": 60,
      "Z": 61,
      "[": 62,
      "\\": 63,
      "]": 64,
      "^": 65,
      "_": 66,
      "`": 67,
      "a": 68,
      "b": 69,
      "c": 70,
      "d": 71,
      "e": 72,
      "f": 73,
      "g": 74,
      "h": 75,
      "i": 76,
      "j": 77,
      "k": 78,
      "l": 79,
      "m": 80,
      "n": 81,
      "o": 82,
      "p": 83,
      "q": 84,
      "r": 85,
      "s": 86,
      "t": 87,
      "u": 88,
      "v": 89,
      "w": 90,
      "x": 91,
      "y": 92,
      "z": 93,
      "{": 94,
      "|": 95,
      "}": 96,
      "~": 97,
      "¡": 98,
      "¢": 99,
      "£": 100,
      "¤": 101,
      "¥": 102,
      "¦": 103,
      "§": 104,
      "¨": 105,
      "©": 106,
      "ª": 107,
      "«": 108,
      "¬": 109,
      "®": 110,
      "¯": 111,
      "°": 112,
      "±": 113,
      "²": 114,
      "³": 115,
      "´": 116,
      "µ": 117,
      "¶": 118,
      "·": 119,
      "¸": 120,
      "¹": 121,
      "º": 122,
      "»": 123,
      "¼": 124,
      "½": 125,
      "¾": 126,
      "¿": 127,
      "À": 128,
      "Á": 129,
      "Â": 130,
      "Ã": 131,
      "Ä": 132,
      "Å": 133,
      "Æ": 134,
      "Ç": 135,
      "È": 136,
      "É": 137,
      "Ê": 138,
      "Ë": 139,
      "Ì": 140,
      "Í": 141,
      "Î": 142,
      "Ï": 143,
      "Ð": 144,
      "Ñ": 145,
      "Ò": 146,
      "Ó": 147,
      "Ô": 148,
      "Õ": 149,
      "Ö": 150,
      "×": 151,
      "Ø": 152,
      "Ù": 153,
      "Ú": 154,
      "Û": 155,
      "Ü": 156,
      "Ý": 157,
      "Þ": 158,
      "ß": 159,
      "à": 160,
      "á": 161,
      "â": 162,
      "ã": 163,
      "ä": 164,
      "å": 165,
      "æ": 166,
      "ç": 167,
      "è": 168,
      "é": 169,
      "ê": 170,
      "ë": 171,
      "ì": 172,
      "í": 173,
      "î": 174,
      "ï": 175,
      "ð": 176,
      "ñ": 177,
      "ò": 178,
      "ó": 179,
      "ô": 180,
      "õ": 181,
      "ö": 182,
      "÷": 183,
      "ø": 184,
      "ù": 185,
      "ú": 186,
      "û": 187,
      "ü": 188,
      "ý": 189,
      "þ": 190,
      "ÿ": 191,
      "Ā": 192,
      "ā": 193,
      "Ă": 194,
      "ă": 195,
      "Ą": 196,
      "ą": 197,
      "Ć": 198,
      "ć": 199,
      "Ĉ": 200,
      "ĉ": 201,
      "Ċ": 202,
      "ċ": 203,
      "Č": 204,
      "č": 205,
      "Ď": 206,
      "ď": 207,
      "Đ": 208,
      "đ": 209,
      "Ē": 210,
      "ē": 211,
      "Ĕ": 212,
      "ĕ": 213,
      "Ė": 214,
      "ė": 215,
      "Ę": 216,
      "ę": 217,
      "Ě": 218,
      "ě": 219,
      "Ĝ": 220,
      "ĝ": 221,
      "Ğ": 222,
      "ğ": 223,
      "Ġ": 224,
      "ġ": 225,
      "Ģ": 226,
      "ģ": 227,
      "Ĥ": 228,
      "ĥ": 229,
      "Ħ": 230,
      "ħ": 231,
      "Ĩ": 232,
      "ĩ": 233,
      "Ī": 234,
      "ī": 235,
      "Ĭ": 236,
      "ĭ": 237,
      "Į": 238,
      "į": 239,
      "İ": 240,
      "ı": 241,
      "Ĳ": 242,
      "ĳ": 243,
      "Ĵ": 244,
      "ĵ": 245,
      "Ķ": 246,
      "ķ": 247,
      "ĸ": 248,
      "Ĺ": 249,
      "ĺ": 250,
      "Ļ": 251,
      "ļ": 252,
      "Ľ": 253,
      "ľ": 254,
      "Ŀ": 255,
      "ŀ": 256,
      "Ł": 257,
      "ł": 258,
      "Ń": 259,
      "à®": 260,
      "à¯": 261,
      "à¯į": 262,
      "Ġà®": 263,
      "à®¿": 264,
      "à¯ģ": 265,
      "à®ķ": 266,
      "à®¤": 267,
      "à®°": 268,
      "à®Ł": 269,
      "à®¾": 270,
      "à®ª": 271,
      "à®®": 272,
      "à®²": 273,
      "à®©": 274,
      "à¯Ī": 275,
      "à®¯": 276,
      "à®±": 277,
      "à®³": 278,
      "à®µ": 279,
      "Ġà®ª": 280,
      "Ġà®ķ": 281,
      "à®ļ": 282,
      "Ġà®®": 283,
      "à®ķà®³": 284,
      "Ġà®¤": 285,
      "à®¨": 286,
      "à®£": 287,
      "Ġà®µ": 288,
      "à¯Ĩ": 289,
      "à¯ĩ": 290,
      "Ġà®ĩ": 291,
      "Ġà®ļ": 292,
      "Ġà®ħ": 293,
      "à¯ĭ": 294,
      "à¯Ĭ": 295,
      "Ġà®¨": 296,
      "à®´": 297,
      "à¯Ĥ": 298,
      "à®Ļ": 299,
      "à¯Ģ": 300,
      "à¯į.": 301,
      "à®ªà®Ł": 302,
      "Ġà®İ": 303,
      "Ġà®Ĩ": 304,
      "Ġà®ī": 305,
      "à¯į,": 306,
      "à®µà®°": 307,
      "à¯ģ.": 308,
      "Ġà®İà®©": 309,
      "Ġ1": 310,
      "Ġà®Ĵ": 311,
      "Ġ(": 312,
      "Ġà®ĩà®°": 313,
      "à®¸": 314,
      "Ġà®°": 315,
      "Ġà®Ł": 316,
      "Ġ2": 317,
      "à®Łà®¤": 318,
      "à®ķà®°": 319,
      "à¯Į": 320,
      "à®ķà®ª": 321,
      "à®±à®¤": 322,
      "à®¤à®²": 323,
      "à®¤à®©": 324,
      "Ġà®²": 325,
      "Ġà®¯": 326,
      "à®ªà®¤": 327,
      "à®ķà®®": 328,
      "Ġà®®à®±": 329,
      "à®ĩ": 330,
      "à®¯à®²": 331,
      "à®Łà®®": 332,
      "à®µà®¤": 333,
      "00": 334,
      "à®ªà®ķ": 335,
      "à®¯à®°": 336,
      "Ġà®ħà®®": 337,
      "Ġà®ĩà®¨": 338,
      "Ġà®Ĵà®°": 339,
      "à®©à®°": 340,
      "à¯ģ:": 341,
      "à®¯à®®": 342,
      "Ġà®ŀ": 343,
      "Ġà®īà®³": 344,
      "à®°à®®": 345,
      "à®ķà®¤": 346,
      "Ġà®±": 347,
      "Ġà®©": 348,
      "Ġà®³": 349,
      "Ġà®´": 350,
      "Ġà®£": 351,
      "Ġà®Ļ": 352,
      "Ġà®µà®°": 353,
      "à®¯à®¤": 354,
      "à®Łà®©": 355,
      "Ġà®ĩà®¤": 356,
      "Ġ19": 357,
      "Ġà®Ĩà®ķ": 358,
      "à¯ģ,": 359,
      "Ġà®ķà®Ł": 360,
      "à®¤à®¤": 361,
      "à®²à®¤": 362,
      "à®ľ": 363,
      "Ġà®Ĩà®£": 364,
      "Ġà®ı": 365,
      "à®¤à®®": 366,
      "à®©à®¤": 367,
      "Ġà®ħà®°": 368,
      "Ġà®ħà®¤": 369,
      "à®¯à®©": 370,
      "à®Łà®°": 371,
      "à®³à®¤": 372,
      "à®ªà®°": 373,
      "à®²à®®": 374,
      "à®ħ": 375,
      "Ġà®ªà®Ł": 376,
      "à®³à®°": 377,
      "Ġà®¤à®®": 378,
      "Ġ-": 379,
      "Ġà®ĩà®²": 380,
      "à®ŀ": 381,
      "à®¤à®°": 382,
      "à®ķà®²": 383,
      "Ġà®¨à®Ł": 384,
      "Ġà®ķà®²": 385,
      "19": 386,
      "Ġà®®à®ķ": 387,
      "âĢ": 388,
      "à®¿.": 389,
      "à®Ĩ": 390,
      "Ġà®ªà®²": 391,
      "Ġà®ħà®²": 392,
      "Ġà®ħà®Ł": 393,
      "à®¿,": 394,
      "Ġà®ķà®£": 395,
      "à®µà®©": 396,
      "à®±à®ª": 397,
      "Ġà®ľ": 398,
      "Ġà®īà®°": 399,
      "à®ķà®µ": 400,
      "à®¤à®ª": 401,
      "Ġà®ªà®ķ": 402,
      "Ġà®ħà®µà®°": 403,
      "Ġà®ĩà®µà®°": 404,
      "Ġà®Ĭ": 405,
      "à®±à®©": 406,
      "Ġà®µà®´": 407,
      "à®°à®¤": 408,
      "à®Łà®ª": 409,
      "Ġà®ķà®°": 410,
      "à®Łà®²": 411,
      "Ġà®ħà®±": 412,
      "01": 413,
      "à®µà®Ł": 414,
      "à®¯à®ķ": 415,
      "à®¯à®ª": 416,
      "à®İ": 417,
      "à®·": 418,
      "à®Łà®ķ": 419,
      "à®£à®®": 420,
      "Ġà®ħà®©": 421,
      "Ġà®ħà®°à®ļ": 422,
      "Ġà®ĵ": 423,
      "Ġ3": 424,
      "Ġà®Ĳ": 425,
      "Ġà®ªà®¤": 426,
      "à®µà®±": 427,
      "à®ķà®´": 428,
      "à®®à®©": 429,
      "Ġà®ªà®°": 430,
      "à¯į)": 431,
      "à®Łà®Ļ": 432,
      "Ġ200": 433,
      "à®²à®ķ": 434,
      "Ġà®¤à®©": 435,
      "Ġà®ļà®®": 436,
      "Ġà®¤à®²": 437,
      "à®³à®µ": 438,
      "ĠâĢ": 439,
      "Ġà®Ĩà®®": 440,
      "Ġà®ªà®¯à®©": 441,
      "à®µà®®": 442,
      "Ġà®İà®´": 443,
      "Ġà®ħà®£": 444,
      "à®ķà®ķ": 445,
      "Ġà®īà®±": 446,
      "à®ļà®©": 447,
      "Ġà®ıà®±": 448,
      "Ġà®®à®©": 449,
      "Ġà®Ĵà®©": 450,
      "à®ļà®®": 451,
      "Ġà®¨à®ķà®°": 452,
      "Ġ\"": 453,
      "à¯Ī,": 454,
      "à®¯à®±": 455,
      "Ġà®µà®Ł": 456,
      "Ġà®ªà®£": 457,
      "à®³à®®": 458,
      "à®°à®ª": 459,
      "à®ļà®°": 460,
      "Ġà®ĩà®£": 461,
      "à®ĩà®¨": 462,
      "à®®à®²": 463,
      "th": 464,
      "à®°à®°": 465,
      "Ġà®Ĭà®°": 466,
      "Ġà®Ī": 467,
      "à®¤à®µ": 468,
      "Ġ4": 469,
      "Ġ201": 470,
      "à®±à®¨": 471,
      "Ġà®ħà®´": 472,
      "à¯Ī.": 473,
      "an": 474,
      "Ġà®µà®ķ": 475,
      "à®©à®®": 476,
      "Ġà®īà®£": 477,
      "à®³à®©": 478,
      "ĠâĢĵ": 479,
      "à®ķà®Ł": 480,
      "Ġà®¹": 481,
      "à®±à®®": 482,
      "à®µà®²": 483,
      "ĥà®ª": 484,
      "Ġà®İà®¤": 485,
      "Ġà®ĩà®ļ": 486,
      "Ġà®ĩà®µ": 487,
      "Ġà®ĩà®©": 488,
      "Ġà®ĩà®°à®£": 489,
      "Ġ5": 490,
      "Ġà®®à®°": 491,
      "à¯į:": 492,
      "Ġà®ĩà®¤à®©": 493,
      "à®ķà®©": 494,
      "Ġà®®à®¤": 495,
      "à®ī": 496,
      "Ġà®İà®Ł": 497,
      "à®°à®£": 498,
      "à®°à®ļ": 499,
      "Ġà®ħà®µ": 500,
      "à®®à®¤": 501,
      "Ġà®®à®²": 502,
      "Ġà®µà®¨": 503,
      "Ġ7": 504,
      "er": 505,
      "um": 506,
      "Ġà®Ĩà®©": 507,
      "Ġà®Ĩà®Ł": 508,
      "Ġà®¸": 509,
      "Ġ6": 510,
      "Ġà®ªà®±": 511,
      "),": 512,
      "Ġà®Ĩà®°": 513,
      "à®¹": 514,
      "à®ªà®©": 515,
      "à®²à®Ļ": 516,
      "Ġà®ļà®Ł": 517,
      "Ġà®ħà®³à®µ": 518,
      "à®Ĩà®®": 519,
      "Ġà®ĩà®Ł": 520,
      "on": 521,
      "à®¯à®Ļ": 522,
      "200": 523,
      "à®¾,": 524,
      "Ġà®īà®Ł": 525,
      "à®®à®°": 526,
      "Ġà®ħà®ķ": 527,
      "Ġà®ħà®¤à®©": 528,
      "Ġ18": 529,
      "Ġà®Ĩà®¯": 530,
      "Ġà®¤à®°": 531,
      "Ġà®ĩà®¯à®ķ": 532,
      "Ġà®µà®´à®Ļ": 533,
      "Ġà®İà®£": 534,
      "à®µà®ķ": 535,
      "à®¤à®ķ": 536,
      "Ġà®ļà®°": 537,
      "à®£à®ª": 538,
      "in": 539,
      "umb": 540,
      "Ġà®ķà®¤": 541,
      "à®ļà®¤": 542,
      "à®ķà®£": 543,
      "Ġà®®à®£": 544,
      "Ġà®ªà®¯": 545,
      "thumb": 546,
      "Ġà®Ĩà®±": 547,
      "à®´à®ķ": 548,
      "Ġà®ħà®¨": 549,
      "à®ªà®®": 550,
      "à®±à®ķ": 551,
      "Ġ0": 552,
      "ar": 553,
      "à®²à®ª": 554,
      "Ġ199": 555,
      "Ġà®®à®Ł": 556,
      "à®±à®©à®°": 557,
      "à®ĥà®ª": 558,
      "à®µà®¤à®±": 559,
      "à®¤à®©à®°": 560,
      "à¯į-": 561,
      "Ġ8": 562,
      "à®¤à®µà®°": 563,
      "Ġà®ħà®ª": 564,
      "al": 565,
      "Ġà®ĩà®Ļ": 566,
      "à®ªà®²": 567,
      "Ġà®ĩà®ª": 568,
      "ri": 569,
      "à®ªà®µà®°": 570,
      "à¯į\"": 571,
      "à®°à®²": 572,
      "at": 573,
      "Ġà®īà®¯à®°": 574,
      "à®¨à®ķà®°": 575,
      "Ġà®µà®³à®°": 576,
      "à®ļà®²": 577,
      "Ġà®İà®²": 578,
      "Ġà®ĩà®±": 579,
      "Ġà®ļà®¨": 580,
      "Ġà®µà®²": 581,
      "Ġ9": 582,
      "à®ķà®ļ": 583,
      "18": 584,
      "Ġà®ªà®Ļ": 585,
      "Ġà®īà®¯": 586,
      "en": 587,
      "à¯ĩ.": 588,
      "à®°à®Ļ": 589,
      "à®Ĵ": 590,
      "à®ªà®¨": 591,
      "à®ĩà®²": 592,
      "Ġà®¤à®©à®¤": 593,
      "à®®à®£": 594,
      "à®°à®©": 595,
      "à®°à®£à®®": 596,
      "Ġà®ĩà®²à®ķ": 597,
      "à®ªà®Łà®®": 598,
      "à®ŀà®°": 599,
      "Ġ198": 600,
      "Ġà®¤à®Ł": 601,
      "à®³à®ķ": 602,
      "20": 603,
      "Ġà®ªà®´": 604,
      "Ġà®µà®°à®²": 605,
      "Ġ20": 606,
      "Ġà®ħà®ļ": 607,
      "Ġà®Ĩà®µ": 608,
      "Ġ10": 609,
      "à®²à®µ": 610,
      "Ġ,": 611,
      "Ġà®ĩà®Łà®®": 612,
      "201": 613,
      "Ġà®īà®²": 614,
      "or": 615,
      "à®²à®©": 616,
      "Ġà®µà®£": 617,
      "à®ķà®Ļ": 618,
      "Ġà®ĩà®²à®Ļ": 619,
      "à®ªà®±": 620,
      "à®´à®¨": 621,
      "50": 622,
      "Ġà®Ĩà®ļ": 623,
      "es": 624,
      "à®³à®Ļ": 625,
      "000": 626,
      "Ġà®¤à®Ļ": 627,
      "Ġà®īà®²à®ķ": 628,
      "ĠC": 629,
      "Ġà®ķà®©": 630,
      "à®°à®Ł": 631,
      "à®°à®ķ": 632,
      "à®£à®¤": 633,
      "px": 634,
      "ĠS": 635,
      "Ġà®ħà®Ļ": 636,
      "à®ªà®Łà®¤": 637,
      "ĠP": 638,
      "Ġà®ªà®©": 639,
      "à®®à®ķ": 640,
      "ĠA": 641,
      "am": 642,
      "Ġà®ļà®ķ": 643,
      "Ġ197": 644,
      "Ġà®¤à®¯": 645,
      "Ġ.": 646,
      "à¯ģ)": 647,
      "à®µà®ª": 648,
      "Ġà®ļà®Ļ": 649,
      "Ġ15": 650,
      "Ġà®ĵà®°": 651,
      "Ġ12": 652,
      "à®ļà®ª": 653,
      "Ġà®ķà®µ": 654,
      "Ġà®Ĩà®²": 655,
      "Ġ17": 656,
      "Ġà®ĩà®ķ": 657,
      "à®±à®²": 658,
      "à®¤à®¨": 659,
      "à®±à®µ": 660,
      "199": 661,
      "Ġà®¤à®±": 662,
      "à®ı": 663,
      "Ġ16": 664,
      "à®®à®®": 665,
      "Ġà®ĩà®¯à®±": 666,
      "à®µà®£": 667,
      "Ġ196": 668,
      "Ġà®ļà®¤": 669,
      "st": 670,
      "Ġà®Ĩà®¤": 671,
      "à®³à®©à®°": 672,
      "Ġà®İà®¸": 673,
      "Ġà®ķà®´": 674,
      "Ġà®µà®³": 675,
      "Ġà®Ĵà®ª": 676,
      "Ġà®ªà®³": 677,
      "Ġà®İà®©à®ª": 678,
      "à®¯à®µà®±": 679,
      "ic": 680,
      "à®Ĳ": 681,
      "Ġ'": 682,
      "à®²à®°": 683,
      "Ġà®¨à®Łà®¤": 684,
      "âĢĵ": 685,
      "Ġà®¨à®®": 686,
      "à®Łà®®à®©": 687,
      "à®°à®µ": 688,
      "Ġà®īà®¤à®µ": 689,
      "à®µà®©à®®": 690,
      "Ġà®ĥà®ª": 691,
      "Ġ11": 692,
      "Ġà®ķà®²à®¨": 693,
      "Ġà®ķà®±": 694,
      "Ġà®ķà®£à®ķ": 695,
      "à®´à®²": 696,
      "Ġ14": 697,
      "ĠM": 698,
      "Ġ13": 699,
      "à®ĩà®¤": 700,
      "le": 701,
      "à®ħà®®": 702,
      "à®¯à®µ": 703,
      "à®³à®ª": 704,
      "Ġà®īà®¤": 705,
      "Ġà®Ĩà®Ļ": 706,
      "Ġà®µà®´à®ķ": 707,
      "Ġà®ĩà®Łà®¤": 708,
      "10": 709,
      "198": 710,
      "Ġà®¤à®¨": 711,
      "à®ªà®¤à®±": 712,
      "à®ªà®³": 713,
      "Ġà®İà®®": 714,
      "ion": 715,
      "Ġà®Ĩà®°à®®": 716,
      "à®µà®¨": 717,
      "gh": 718,
      "Ġà®ĵà®Ł": 719,
      "à®©à®µà®°": 720,
      "à®¤à®Ļ": 721,
      "à®ļà®¨": 722,
      "17": 723,
      "à®¨à®°": 724,
      "ĠT": 725,
      "Ġà®Ĵà®³": 726,
      "12": 727,
      "Ġà®ħà®µà®°à®¤": 728,
      "Ġà®ħà®³": 729,
      "Ġà®İà®¨": 730,
      "ĠI": 731,
      "à®µà®³": 732,
      "Ġo": 733,
      "à¯į;": 734,
      "à®Łà®©à®°": 735,
      "Ġà®ĥ": 736,
      "à®¯à®µà®°": 737,
      "à®Łà®µ": 738,
      "à®ªà®£": 739,
      "Ġà®īà®Łà®²": 740,
      "ĠB": 741,
      "Ġ2011": 742,
      "Ġà®ħà®µà®±": 743,
      "à®İà®¸": 744,
      "à®¿)": 745,
      "16": 746,
      "Ġà®ķà®Łà®²": 747,
      "à®ĩà®°": 748,
      "Ġà®Ķ": 749,
      "Ġà®ĩà®±à®ª": 750,
      "Ġà®İà®°": 751,
      "Ġà®ĩà®®": 752,
      "Ġà®İà®©à®µ": 753,
      "Ġà®Ĩà®ª": 754,
      "à®´à®°": 755,
      "Ġà®Ĵà®²": 756,
      "à®¾.": 757,
      "Ġà®ĩà®µà®±": 758,
      "197": 759,
      "Ġà®ķà®®": 760,
      "ght": 761,
      "à®ļà®Ļ": 762,
      "Ġà®Ĵà®µ": 763,
      "it": 764,
      "ch": 765,
      "Ġof": 766,
      "ĠN": 767,
      "à®İà®©": 768,
      "Ġp": 769,
      "à®£à®©": 770,
      "à®¯à®Ł": 771,
      "15": 772,
      "à®ķà®µà®²": 773,
      "à®£à®°": 774,
      "à®±à®µà®°": 775,
      "Ġà®ļà®ª": 776,
      "ĠR": 777,
      "Ġà®µà®Łà®ķ": 778,
      "à®µà®´": 779,
      "Ġà®Ĳà®ķ": 780,
      "à®µà®Ļ": 781,
      "Ġà®Īà®Ł": 782,
      "Ġà®µà®¯à®¤": 783,
      "Ġ194": 784,
      "Ġ195": 785,
      "Ġà®īà®£à®µ": 786,
      "right": 787,
      "Ġà®ĩà®¯à®²": 788,
      "ed": 789,
      "ĠG": 790,
      "Ġà®µà®Ļ": 791,
      "Ġà®Ĳà®¨": 792,
      "13": 793,
      "à®Ĵà®°": 794,
      "à®ªà®°à®ª": 795,
      "ur": 796,
      "ĠD": 797,
      "à®¯à®ļ": 798,
      "14": 799,
      "is": 800,
      "à®°à®µà®°": 801,
      "à®¤à®±": 802,
      "à®Łà®µà®°": 803,
      "il": 804,
      "à¯Ģ.": 805,
      "Ġà®®à®°à®ª": 806,
      "196": 807,
      "Ġà®ĩà®Łà®Ļ": 808,
      "Ġà®ĩà®µà®°à®¤": 809,
      "Ġà®ĩà®¤à®´": 810,
      "à¤": 811,
      "22": 812,
      "ol": 813,
      "30": 814,
      "à®Łà®±": 815,
      "om": 816,
      "Ġà®īà®Łà®©": 817,
      "à®µà®°à®¤": 818,
      "à®Ĩà®°": 819,
      "Ġà®¤à®ķà®µà®²": 820,
      "Ġà®¤à®£": 821,
      "à®µà®ļ": 822,
      "à®¨à®Ł": 823,
      "à®®à®Ļ": 824,
      "el": 825,
      "à®²à®µà®°": 826,
      "Ġà®¤à®µ": 827,
      "Ġà®·": 828,
      "à¯Ī)": 829,
      "à¯ĩ,": 830,
      "à®İà®®": 831,
      "Ġà®¨à®©": 832,
      "ĠH": 833,
      "à®µà®©à®¤": 834,
      "à¯į'": 835,
      "à®±à®Ļ": 836,
      "and": 837,
      "à®¤à®ļ": 838,
      "à®ªà®ª": 839,
      "Ġà®¨à®ķà®°à®®": 840,
      "Ġà®ªà®°à®ª": 841,
      "Ġà®Ĵà®¤": 842,
      "à®©à®ª": 843,
      "25": 844,
      "Ġà®Ĳà®°": 845,
      "as": 846,
      "Ġà®¨à®²": 847,
      "Ġà®®à®ķà®©": 848,
      "21": 849,
      "Ġà®ĩà®¯": 850,
      "24": 851,
      "Ġ25": 852,
      "Ġà®ĩà®³": 853,
      "et": 854,
      "Ġà®īà®£à®°": 855,
      "Ġà®Īà®°": 856,
      "Ġà®ĩà®¤à®±": 857,
      "Ġ30": 858,
      "à®©à®ķ": 859,
      "Ġà®ªà®ļ": 860,
      "à®®à®±": 861,
      "à®©à®©": 862,
      "à®ļà®ķ": 863,
      "Ġà®Ĩà®¤à®°": 864,
      "à®ľà®©": 865,
      "Ġà®ķà®ª": 866,
      "à®©à®£": 867,
      "Ġà®¨à®Łà®¨": 868,
      "Ġ2008": 869,
      "11": 870,
      "Ġà®ħà®¤à®±": 871,
      "ay": 872,
      "23": 873,
      "à®²à®ļ": 874,
      "Ġà®ķà®³": 875,
      "Ġ24": 876,
      "à®£à®Ļ": 877,
      "à®ķà®¨": 878,
      "Ġà®İà®ķ": 879,
      "à¯į(": 880,
      "Ġà®¨à®µà®®": 881,
      "Ġà®ıà®°": 882,
      "à®®à®ļ": 883,
      "à®ħà®°": 884,
      "Ġà®ªà®¤à®µ": 885,
      "ĠE": 886,
      "Ġà®Ĵà®Ł": 887,
      ").": 888,
      "Ġà®¤à®°à®µ": 889,
      "à®Łà®ļ": 890,
      "195": 891,
      "à®ĵ": 892,
      "âĢĻ": 893,
      "à®ķà®³à®µ": 894,
      "à®´à®ª": 895,
      "à®´à®®": 896,
      "à®ħà®¤": 897,
      "à¯ĭ,": 898,
      "Ġà®İà®ļ": 899,
      "à®ĩà®²à®Ļ": 900,
      "à®¤à®Ł": 901,
      "Ġà®¤à®ķ": 902,
      "ĠL": 903,
      "Ġà®ĩà®¯à®Ļ": 904,
      "à®ķà®±": 905,
      "à®°à®°à®ļ": 906,
      "âĢĿ": 907,
      "Ġ2009": 908,
      "Ġà®Ĩà®³": 909,
      "194": 910,
      "Ġ23": 911,
      "us": 912,
      "à®ķà®³à®¤": 913,
      "Ġ2007": 914,
      "Ġà®ıà®ª": 915,
      "Ġ193": 916,
      "ing": 917,
      "ad": 918,
      "à®°à®¸": 919,
      "Ġà®īà®ª": 920,
      "à®©à®²": 921,
      "Ġà®İà®ª": 922,
      "à®©à®Ļ": 923,
      "à®Ī": 924,
      "Ġ26": 925,
      "re": 926,
      "Ġ2006": 927,
      "ro": 928,
      "Ġ=": 929,
      "à®Ĭ": 930,
      "Ġà®µà®ļ": 931,
      "Ġà®ıà®©": 932,
      "à®¯à®°à®ļ": 933,
      "ĠF": 934,
      "à®©à®µ": 935,
      "à®Ĩà®£": 936,
      "Ġà®İà®©à®ķ": 937,
      "Ġ22": 938,
      "à®£à®ķ": 939,
      "Ġà®ķà®Łà®±": 940,
      "à®£à®µà®°": 941,
      "à®ªà®Ļ": 942,
      "Ġà®ªà®¨": 943,
      "ct": 944,
      "Ġà®ıà®´": 945,
      "Ġà®İà®³": 946,
      "Ġà®ķà®Łà®µ": 947,
      "ation": 948,
      "he": 949,
      "Ġ27": 950,
      "ent": 951,
      "à®³à®Łà®ķ": 952,
      "à®ķà®°à®®": 953,
      "28": 954,
      "Ġà®¨à®Łà®µà®Ł": 955,
      "26": 956,
      "Ġà®ªà®²à®°": 957,
      "Ġà®ĩà®±à®¨": 958,
      "à®©à®¨": 959,
      "Ġ28": 960,
      "Ġà®Ĭà®Ł": 961,
      "Ġ21": 962,
      "Ġà®īà®ļ": 963,
      "Ġà®ħà®Łà®Ļ": 964,
      "un": 965,
      "à¯ģ\"": 966,
      "à®®à®¨": 967,
      "à¯ģ-": 968,
      "Ġ2010": 969,
      "Ġà®ħà®µà®©": 970,
      "Ġà®Ĵà®´": 971,
      "..": 972,
      "Ġà®®à®ķà®³": 973,
      "à®ķà®²à®®": 974,
      "Ġà®ļà®£": 975,
      "à®°à®³": 976,
      "29": 977,
      "à®·à®©": 978,
      "à®¿-": 979,
      "Ġ|": 980,
      "27": 981,
      "à®ªà®µ": 982,
      "à®°à®¤à®®": 983,
      "Ġth": 984,
      "Ġ2005": 985,
      "à®ħà®©": 986,
      "Ġ:": 987,
      "à®ħà®²": 988,
      "ĠW": 989,
      "ia": 990,
      "à¯į),": 991,
      "Ġ29": 992,
      "ul": 993,
      "à®İà®²": 994,
      "Ġ100": 995,
      "à®ķà®´à®ķà®¤": 996,
      "40": 997,
      "à®´à®±": 998,
      "à¯ģ;": 999,
      "Ġc": 1000,
      "Ġà®ĵà®µ": 1001,
      "à®ļà®Ł": 1002,
      "à®¯à®ķà®®": 1003,
      "à®µà®°à®°": 1004,
      "Ġà®ªà®Łà®®": 1005,
      "Ġà®ªà®Łà®¤": 1006,
      "Ġà®ªà®ŀ": 1007,
      "ra": 1008,
      "à®µà®°à®²": 1009,
      "à®ĩà®µà®°": 1010,
      "à®²à®¨": 1011,
      "Ġà®ļà®©": 1012,
      "Ġà®¨à®ķà®°à®Ļ": 1013,
      "à®ªà®ķà®®": 1014,
      "à®ªà®Łà®Ļ": 1015,
      "em": 1016,
      "à®ķà®´à®ķà®®": 1017,
      "ĠâĢľ": 1018,
      "Ġ)": 1019,
      "60": 1020,
      "ĠK": 1021,
      "à®°à®®à®£": 1022,
      "à®±à®µà®±": 1023,
      "à¯Ĭ.": 1024,
      "à®Ĩà®Ļ": 1025,
      "ag": 1026,
      "à®ĩà®©": 1027,
      "à®ħà®Ł": 1028,
      "Ġthe": 1029,
      "à®®à®ª": 1030,
      "à®µà®°à®®": 1031,
      "80": 1032,
      "à®¯à®£": 1033,
      "Ġà®µà®ļà®¤": 1034,
      "Ġà®īà®±à®µ": 1035,
      "à®ªà®ļ": 1036,
      "ĠJ": 1037,
      "à®®à®£à®®": 1038,
      "à®¤à®´": 1039,
      "Ġ2014": 1040,
      "Ġà®Ĩà®¤à®°à®µ": 1041,
      "à®Łà®£": 1042,
      "33": 1043,
      "à®ľà®°": 1044,
      "Ġf": 1045,
      "Ġà®ªà®´à®Ļ": 1046,
      "Ġ2004": 1047,
      "à¯Ĩ.": 1048,
      "Ġà®ªà®°à®µà®²": 1049,
      "Ġà®¤à®³": 1050,
      "Ġà®ħà®´à®ķ": 1051,
      "Ġà®ªà®¯à®£": 1052,
      "à®¯à®¨": 1053,
      "à®ķà®Łà®²": 1054,
      "Ġà®ĩà®°à®¤": 1055,
      "ĠV": 1056,
      "Ġs": 1057,
      "ĠâĢĺ": 1058,
      "Ġà®¨à®ªà®°": 1059,
      "70": 1060,
      "id": 1061,
      "Ġà®¨à®µ": 1062,
      "Ġà®¨à®ķà®°à®¤": 1063,
      "Ġà®ªà®±à®µ": 1064,
      "Ġd": 1065,
      "à®µà®²à®°": 1066,
      "à®ĥ": 1067,
      "à®ľà®¯": 1068,
      "Ġà®µà®©": 1069,
      "Ġb": 1070,
      "Ġ50": 1071,
      "à®ĩà®Ļ": 1072,
      "35": 1073,
      "ist": 1074,
      "à®´à®©": 1075,
      "Ġà®¤à®¤": 1076,
      "Ġ2013": 1077,
      "Ġ2012": 1078,
      "à®ĩà®ļ": 1079,
      "à®Łà®³": 1080,
      "Ġand": 1081,
      "ĠO": 1082,
      "Ġà®Ĩà®¸": 1083,
      "à®ªà®Łà®µ": 1084,
      "iv": 1085,
      "à®²à®Ł": 1086,
      "Ġà®İà®µ": 1087,
      "Ġà®ĩà®´": 1088,
      "Ġà®Ĩà®ĥà®ª": 1089,
      "à®¤à®³": 1090,
      "Ġ&": 1091,
      "à®¨à®ķà®°à®®": 1092,
      "à®£à®²": 1093,
      "à®µà®©à®Ļ": 1094,
      "39": 1095,
      "ĠU": 1096,
      "op": 1097,
      "à®´à®¤": 1098,
      "à¯į/": 1099,
      "36": 1100,
      "Ġà®®à®Ļ": 1101,
      "37": 1102,
      "34": 1103,
      "Ġ2000": 1104,
      "Ġà®ıà®¤": 1105,
      "à®ªà®Łà®²": 1106,
      "à®ħà®°à®ļ": 1107,
      "Ġt": 1108,
      "Ġà®¨à®ķ": 1109,
      "Ġà®ļà®©à®µà®°": 1110,
      "ac": 1111,
      "Ġ40": 1112,
      "ir": 1113,
      "à®¾)": 1114,
      "99": 1115,
      "Ġà®īà®²à®ķà®ª": 1116,
      "à®£à®µ": 1117,
      "à®īà®°": 1118,
      "2011": 1119,
      "Ġà®¤à®°à®ª": 1120,
      "Ġà®ļà®µ": 1121,
      "à®ħà®£": 1122,
      "38": 1123,
      "Ġà®¤à®®à®¤": 1124,
      "Ġ2001": 1125,
      "Ġà®Ĩà®ķà®µ": 1126,
      "à®±à®³": 1127,
      "à®ĩà®µ": 1128,
      "à®®à®Ł": 1129,
      "75": 1130,
      "à®ªà®¯": 1131,
      "45": 1132,
      "ap": 1133,
      "à®¤à®°à®®": 1134,
      "à®³à®²": 1135,
      "ĠIn": 1136,
      "90": 1137,
      "à®¤à®°à®°": 1138,
      "ft": 1139,
      "Ġà®ķà®Łà®¨": 1140,
      "Ġà®®à®´": 1141,
      "à®ªà®¤à®©": 1142,
      "Ġà®ħà®²à®ķ": 1143,
      "Ġà®Ĵà®±": 1144,
      "Ġin": 1145,
      "Ġà®®à®²à®°": 1146,
      "Ġ[": 1147,
      "ut": 1148,
      "à®°à®¨": 1149,
      "Ġà®ªà®°à®µ": 1150,
      "Ġ%": 1151,
      "ot": 1152,
      "Ġà®ªà®µ": 1153,
      "à®µà®¤à®©": 1154,
      "Ġ2003": 1155,
      "à®ħà®ķ": 1156,
      "Ġ2015": 1157,
      "Ġà®¤à®µà®±": 1158,
      "à®ªà®°à®®": 1159,
      "Ġm": 1160,
      "Ġà®ĩà®¸": 1161,
      "à®ĩà®¤à®©": 1162,
      "04": 1163,
      "Ġ+": 1164,
      "à®¿\"": 1165,
      "Ġà®¤à®ŀ": 1166,
      "Ġà®ħà®°à®ļà®°": 1167,
      "à¯Ī\"": 1168,
      "à®¤à®ķà®®": 1169,
      "à®ĩà®°à®£": 1170,
      "à¯Ī-": 1171,
      "Ġà®ªà®´à®®": 1172,
      "Ġ31": 1173,
      "Ġà®ħà®µà®³": 1174,
      "à®´à®ķà®¤": 1175,
      "Ġà®ķà®´à®ķà®®": 1176,
      "48": 1177,
      "Ġâ": 1178,
      "os": 1179,
      "Ġà®ªà®°à®®": 1180,
      "05": 1181,
      "Ġà®ħà®ŀ": 1182,
      "Ġà®ħà®°à®Ļ": 1183,
      "od": 1184,
      "à®°à®ªà®²à®®": 1185,
      "Ġà®®à®¨": 1186,
      "65": 1187,
      "31": 1188,
      "Ġà®ļà®®à®¯à®¤": 1189,
      "Ġ||": 1190,
      "Ġà®ªà®Łà®Ļ": 1191,
      "Ġà®¨à®±": 1192,
      "im": 1193,
      "98": 1194,
      "à®Ĩà®ķ": 1195,
      "Ġ/": 1196,
      "ers": 1197,
      "à®ļà®µ": 1198,
      "à®¤à®³à®®": 1199,
      "Ġà®ħà®®à®°": 1200,
      "à®İà®£": 1201,
      "à®Łà®ķà®®": 1202,
      "Ġà®ĩà®°à®µ": 1203,
      "à®ļà®©à®®": 1204,
      "à®ħà®±": 1205,
      "à®ªà®´": 1206,
      "Ġà®ĩà®³à®®": 1207,
      "ram": 1208,
      "Ġà®Ĩà®ķà®¤": 1209,
      "à®Łà®ķà®°": 1210,
      "95": 1211,
      "à®°à®¤à®®à®°": 1212,
      "à®ķà®µà®°": 1213,
      "à®¤à®£": 1214,
      "250": 1215,
      "67": 1216,
      "à¯į).": 1217,
      "32": 1218,
      "Ġà®ļà®¤à®µ": 1219,
      "à¯Ī:": 1220,
      "à®¤à®²à®®": 1221,
      "64": 1222,
      "Ġà®ħà®¯": 1223,
      "Ġ35": 1224,
      "Â°": 1225,
      "à®©à®ļ": 1226,
      "à®¿:": 1227,
      "à®©à®Ł": 1228,
      "Ġà®¨à®£": 1229,
      "à®¯à®³": 1230,
      "Ġà®īà®¯à®°à®®": 1231,
      "07": 1232,
      "Ġà®Ĳà®¤à®°": 1233,
      "Ġà®¤à®ª": 1234,
      "Ġà®ĩà®±à®ķ": 1235,
      "Ġà®ħà®°à®ļà®©": 1236,
      "Ġ2002": 1237,
      "à®µà®°à®Ļ": 1238,
      "left": 1239,
      "Ġà®ļà®²": 1240,
      "06": 1241,
      "à¯įâĢĿ": 1242,
      "Ġà®Ĩà®ķà®¸": 1243,
      "og": 1244,
      "Ġà®īà®®": 1245,
      "78": 1246,
      "à®ªà®Łà®ķ": 1247,
      "44": 1248,
      "à¯įâĢĻ": 1249,
      "Ġà®ķà®©à®Ł": 1250,
      "Ġ1990": 1251,
      "Ġà®ĩà®°à®Ł": 1252,
      "Ġà®ķà®Łà®©": 1253,
      "08": 1254,
      "96": 1255,
      "à®Ĩà®¤": 1256,
      "à®ķà®°à®©": 1257,
      "ce": 1258,
      "ev": 1259,
      "à®±à®°": 1260,
      "à®ħà®ª": 1261,
      "Ġà®®à®¯": 1262,
      "Ġn": 1263,
      "à®ĩà®ª": 1264,
      "85": 1265,
      "ak": 1266,
      "Ġà®µà®°à®µ": 1267,
      "ess": 1268,
      "à®¨à®²": 1269,
      "77": 1270,
      "Ġà®¨à®Łà®©": 1271,
      "Ġà®ĵà®¯": 1272,
      "Ġà®ķà®Łà®¤": 1273,
      "à®²à®¯à®®": 1274,
      "II": 1275,
      "à®±à®´": 1276,
      "à®ļà®ķà®°": 1277,
      "à®ªà®³à®µ": 1278,
      "Ġà®ħà®Łà®°": 1279,
      "Ġà®²à®Ł": 1280,
      "68": 1281,
      "2008": 1282,
      "à®İà®ļ": 1283,
      "Ġà®µà®Łà®®": 1284,
      "Ġà®ķà®Ļ": 1285,
      "Ġà®µà®±": 1286,
      "Ġà®ĩà®¯à®¨": 1287,
      "2009": 1288,
      "47": 1289,
      "Ġà®µà®¤": 1290,
      "à®²à®ķà®®": 1291,
      "55": 1292,
      "Ġ1980": 1293,
      "Ġà®ĩà®µà®©": 1294,
      "Ġà®ļà®®à®¯": 1295,
      "av": 1296,
      "Ġ1999": 1297,
      "2006": 1298,
      "Ġà®İà®Ļ": 1299,
      "anch": 1300,
      "46": 1301,
      "97": 1302,
      "Ġà®Ĭà®ķ": 1303,
      "300": 1304,
      "Ġà®¨à®¤": 1305,
      "à®¤à®¯": 1306,
      "Ġà®ķà®¨": 1307,
      "à®İà®Ł": 1308,
      "Ġà®ľà®©à®µà®°": 1309,
      "Ġà®Ĩà®©à®¤": 1310,
      "Ġ60": 1311,
      "Ġà®®à®ŀ": 1312,
      "Ġa": 1313,
      "Ġà®ļà®®à®©": 1314,
      "à®¤à®©à®®": 1315,
      "à®Ĩà®ļ": 1316,
      "à®ĩà®µà®±": 1317,
      "up": 1318,
      "ai": 1319,
      "à®ħà®ļ": 1320,
      "Ġà®ªà®¯à®£à®®": 1321,
      "à®Łà®²à®¤": 1322,
      "à®®à®²à®°": 1323,
      "09": 1324,
      "Ġà®¤à®³à®®": 1325,
      "à®±à®ļ": 1326,
      "02": 1327,
      "88": 1328,
      "Ġà®ķà®ļ": 1329,
      "100": 1330,
      "à®ļà®³": 1331,
      "ayat": 1332,
      "Ġ2016": 1333,
      "ang": 1334,
      "à®²à®ķà®Ł": 1335,
      "2007": 1336,
      "03": 1337,
      "Ġà®īà®²à®ķà®®": 1338,
      "à®¯à®ķà®°": 1339,
      "ĠThe": 1340,
      "Ġà®¨à®ļ": 1341,
      "à®µà®®à®©": 1342,
      "Ġà®ļà®®à®¯à®®": 1343,
      "à®Ĩà®©": 1344,
      "ĠPanch": 1345,
      "à®Łà®ķà®¤": 1346,
      "ĠPanchayat": 1347,
      "à®ķà®£à®ķ": 1348,
      "Ġà®¤à®´": 1349,
      "66": 1350,
      "Ġ1996": 1351,
      "à¯Ĥ.": 1352,
      "94": 1353,
      "Ġà®Ĩà®µà®°": 1354,
      "à®ļà®£": 1355,
      "Ġà®ĩà®©à®Ļ": 1356,
      "Ġà®Ĩà®¨": 1357,
      "Ġà®ħà®°à®£": 1358,
      "à®Łà®Ł": 1359,
      "Ġ$": 1360,
      "Ġà®ħà®µà®¤": 1361,
      "Ġà®µà®®": 1362,
      "à®¾-": 1363,
      "li": 1364,
      "à®ªà®°à®ķ": 1365,
      "Ġà®Ĩà®µà®¤": 1366,
      "Ġ45": 1367,
      "Ġà®ħà®°à®ª": 1368,
      "Ġà®ķà®µà®°": 1369,
      "ter": 1370,
      "à®Łà®¨": 1371,
      "à®ķà®®à®¤": 1372,
      "à®İà®´": 1373,
      "à®Ĳà®ķ": 1374,
      "à®ľà®ķ": 1375,
      "à®ĩà®±": 1376,
      "à®°à®£à®¤": 1377,
      "oc": 1378,
      "%)": 1379,
      "Ġ1998": 1380,
      "2010": 1381,
      "à¥": 1382,
      "à®ĩà®ķ": 1383,
      "ph": 1384,
      "Ġà®ľà®©à®¤": 1385,
      "à®®à®°à®ª": 1386,
      "ab": 1387,
      "ow": 1388,
      "Ġ1991": 1389,
      "à®īà®¤": 1390,
      "Ġà®ĩà®©à®¤": 1391,
      "58": 1392,
      "Ġà®ªà®¯à®©à®°": 1393,
      "Ġà®Ĩà®´": 1394,
      "ew": 1395,
      "à®ķà®£à®®": 1396,
      "Ġà®īà®´": 1397,
      "à®Łà®ķà®Ļ": 1398,
      "ĠGram": 1399,
      "57": 1400,
      "2005": 1401,
      "Ġà®¤à®ļ": 1402,
      "Ġà®ļà®±": 1403,
      "2014": 1404,
      "à®īà®³": 1405,
      "à®Łà®²à®®": 1406,
      "à®ķà®ªà®Ł": 1407,
      "ud": 1408,
      "à®¾\"": 1409,
      "2004": 1410,
      "à®²à®¸": 1411,
      "Ġà®¤à®°à®®": 1412,
      "Ġà®ĩà®´à®ª": 1413,
      "Ġà®ķà®´à®ķà®¤": 1414,
      "Ġ38": 1415,
      "Ġà®ĩà®´à®¨": 1416,
      "Ġà®ħà®¯à®©": 1417,
      "49": 1418,
      "à®İà®¤": 1419,
      "Ġà®ıà®ķ": 1420,
      "Ġà®¨à®Łà®ķ": 1421,
      "2001": 1422,
      "à®¯à®¸": 1423,
      "à®ķà®°à®¤": 1424,
      "Ġà®ıà®±à®¤": 1425,
      "ber": 1426,
      "--": 1427,
      "Ġà®¨à®¨": 1428,
      "Ġà®ħà®Łà®ķ": 1429,
      "Ġ37": 1430,
      "Ġ1989": 1431,
      "à®¤à®ªà®Ł": 1432,
      "ĠCh": 1433,
      "ath": 1434,
      "Ġw": 1435,
      "Ġ32": 1436,
      "Ġà®Ĩà®²à®¯à®®": 1437,
      "à®īà®¯": 1438,
      "à®¤à®µà®©": 1439,
      "Ġà®®à®ļ": 1440,
      "à®īà®²à®ķ": 1441,
      "à®°à®£à®Ļ": 1442,
      "Ġà®¤à®©à®ķ": 1443,
      "à®°à®°à®ļà®°": 1444,
      "Ġà®ĩà®²à®Ł": 1445,
      "à®Ĩà®Ł": 1446,
      "Ġ()": 1447,
      "ig": 1448,
      "Ġ1997": 1449,
      "Ġà®°à®¯": 1450,
      "all": 1451,
      "Ġà®ħà®µà®ļ": 1452,
      "91": 1453,
      "Ġà®ļà®®à®®": 1454,
      "Ġà®¨à®°à®®": 1455,
      "Ġà®ªà®´à®ķ": 1456,
      "à®¤à®°à®ª": 1457,
      "à®¤à®°à®µ": 1458,
      "ity": 1459,
      "ard": 1460,
      "Ġà®īà®©": 1461,
      "ec": 1462,
      "2000": 1463,
      "ian": 1464,
      "92": 1465,
      "Ġ80": 1466,
      "Ġ1994": 1467,
      "Ġà®ıà®µ": 1468,
      "Ġà®¤à®³à®¤": 1469,
      "à®ľà®®": 1470,
      "à®ħà®¨": 1471,
      "2012": 1472,
      "Ġ36": 1473,
      "Ġà®°à®¤": 1474,
      "86": 1475,
      "à®ªà®µà®©": 1476,
      "93": 1477,
      "Ġ1970": 1478,
      "à®ķà®³à®ª": 1479,
      "ov": 1480,
      "Ġà®ľà®ª": 1481,
      "ĠSt": 1482,
      "ine": 1483,
      "à®°à®¯": 1484,
      "ary": 1485,
      "Ġ1995": 1486,
      "à®µà®³à®µ": 1487,
      "Ġà®µà®²à®¤": 1488,
      "76": 1489,
      "43": 1490,
      "à®¤à®³à®¤": 1491,
      "Ġà®ľà®®": 1492,
      "56": 1493,
      "Ġà®ĩà®³à®µà®°": 1494,
      "42": 1495,
      "Ġà®¨à®°": 1496,
      "Ġ1960": 1497,
      "à®ĩà®Ł": 1498,
      "à®£à®¯": 1499,
      "à®ļà®ļ": 1500,
      "41": 1501,
      "Ġà®¤à®²à®Ļ": 1502,
      "à®īà®²": 1503,
      "Ġà®®à®©à®¤": 1504,
      "Ġà®Ĩà®©à®¨": 1505,
      "à®³à®µà®°": 1506,
      "The": 1507,
      "Ġà®īà®²à®ķà®³": 1508,
      "ĪĴ": 1509,
      "Ġ70": 1510,
      "à®ĩà®£": 1511,
      "Ġà®ĩà®²à®¤": 1512,
      "à®ĩà®®": 1513,
      "87": 1514,
      "à®Ĩà®µà®¤": 1515,
      "Ġà®¹à®°": 1516,
      "à®£à®±": 1517,
      "à®ªà®¯à®©": 1518,
      "Ġ1992": 1519,
      "Ġ1984": 1520,
      "à®¤à®ķà®¤": 1521,
      "ĠâĢĶ": 1522,
      "Ġà®µà®°à®®": 1523,
      "Ġ75": 1524,
      "Ġà®°à®ķ": 1525,
      "Ġà®ķà®µà®©": 1526,
      "art": 1527,
      "Ġà®ĩà®°à®¯": 1528,
      "à®®à®¸": 1529,
      "à®ĩà®²à®ķ": 1530,
      "Ġà®ĩà®©à®ª": 1531,
      "ub": 1532,
      "Ġà®ªà®£à®®": 1533,
      "Ġà®ķà®²à®ª": 1534,
      "2013": 1535,
      "Ġà®ªà®²à®µ": 1536,
      "Ġà®¤à®³à®ªà®¤": 1537,
      "Ġ1977": 1538,
      "2003": 1539,
      "Ġà®ĩà®©à®®": 1540,
      "à®²à®£": 1541,
      "à®ķà®³à®®": 1542,
      "Ġx": 1543,
      "à®Ĩà®¯": 1544,
      "Ġà®°à®µ": 1545,
      "à®ħà®µà®°": 1546,
      "Ġà®Ĭà®¤": 1547,
      "à¯į.\"": 1548,
      "Ġà®İà®±": 1549,
      "61": 1550,
      "Ġ1993": 1551,
      "Ġà®īà®²à®ķà®¤": 1552,
      "Ġà®ħà®ķà®¤": 1553,
      "à®Ĭà®°": 1554,
      "Ġà®®à®°à®®": 1555,
      "ĠInd": 1556,
      "Ġà®ķà®²à®µ": 1557,
      "89": 1558,
      "à®ľà®ª": 1559,
      "à®Łà®µà®£": 1560,
      "Ġ33": 1561,
      "à®īà®ļ": 1562,
      "Ġà®®à®°à®¤": 1563,
      "à®¿'": 1564,
      "Ġà®īà®¯à®°à®¤": 1565,
      "ah": 1566,
      "est": 1567,
      "ate": 1568,
      "à®¯à®ķà®¤": 1569,
      "Ġà®ļà®°à®£": 1570,
      "ĠX": 1571,
      "à®¹à®°": 1572,
      "à®ĩà®¯à®±": 1573,
      "ast": 1574,
      "ell": 1575,
      "|-": 1576,
      "Ġà®®à®£à®®": 1577,
      "ep": 1578,
      "ff": 1579,
      "Ġà®Ĭà®´": 1580,
      "à®¯à®ķà®©": 1581,
      "à®£à®ļ": 1582,
      "Ġà®īà®ªà®¯": 1583,
      "ip": 1584,
      "2002": 1585,
      "83": 1586,
      "com": 1587,
      "Ġà®ķà®Łà®®": 1588,
      "à®®à®¯": 1589,
      "à®²à®±": 1590,
      "Ġà®ĩà®Łà®ª": 1591,
      "81": 1592,
      "Ġv": 1593,
      "à®ħà®µ": 1594,
      "Ġà®°à®ļ": 1595,
      "71": 1596,
      "à®µà®ķà®Ļ": 1597,
      "72": 1598,
      "à®ļà®¯": 1599,
      "ran": 1600,
      "Ġà®®à®°à®Ļ": 1601,
      "ĠNR": 1602,
      "Ġà®īà®³à®µ": 1603,
      "82": 1604,
      "ok": 1605,
      "Ġ34": 1606,
      "à®ķà®²à®©": 1607,
      "Ġà®ļà®Łà®Ļ": 1608,
      "ory": 1609,
      "à®ªà®ŀ": 1610,
      "à¯ģ),": 1611,
      "Ġà®īà®²à®ķà®ķ": 1612,
      "Ġà®ħà®ķà®±": 1613,
      "à®®à®µ": 1614,
      "Ġà®ķà®µà®©à®®": 1615,
      "Ġà®İà®©à®¤": 1616,
      "Ġà®ħà®ķà®°": 1617,
      "Ġ1987": 1618,
      "Ġà®Īà®´à®¤": 1619,
      "Ġà®µà®¯": 1620,
      "Ġà®®à®°à®ªà®£": 1621,
      "à¯į..": 1622,
      "à®Ĳà®°": 1623,
      "1999": 1624,
      "Ġà®ĵà®ļ": 1625,
      "à®ļà®²à®®": 1626,
      "à®¾?": 1627,
      "à®³à®ļ": 1628,
      "62": 1629,
      "à¯ģ'": 1630,
      "à®¤à®°à®©": 1631,
      "à®Ĩà®±": 1632,
      "Ġ2019": 1633,
      "à®Ĩà®²": 1634,
      "Ġà®µà®£à®Ļ": 1635,
      "54": 1636,
      "84": 1637,
      "Ġl": 1638,
      "69": 1639,
      "59": 1640,
      "Ġà®ªà®°à®¨": 1641,
      "Ġ1985": 1642,
      "à®´à®Ļ": 1643,
      "Ġ90": 1644,
      "à®ıà®ª": 1645,
      "'s": 1646,
      "51": 1647,
      "52": 1648,
      "Ġ1971": 1649,
      "Ġà®ķà®¯": 1650,
      "63": 1651,
      "à®¯à®²à®®": 1652,
      "Ġ1986": 1653,
      "à®¨à®®": 1654,
      "à®ļà®¸": 1655,
      "ant": 1656,
      "ens": 1657,
      "Ġ1988": 1658,
      "Ġà®İà®¯": 1659,
      "Ġh": 1660,
      "Ġà®ªà®Łà®ķ": 1661,
      "79": 1662,
      "2015": 1663,
      "53": 1664,
      "age": 1665,
      "Ġ39": 1666,
      "à®ķà®©à®µ": 1667,
      "à¯ĭ.": 1668,
      "Ġto": 1669,
      "ge": 1670,
      "Ġà®īà®Łà®±": 1671,
      "Ġà®ļà®®à®¯à®Ļ": 1672,
      "Ġà®ĩà®³à®Ļ": 1673,
      "Ġà®ľà®©": 1674,
      "73": 1675,
      "ĠÎ": 1676,
      "Ġ1967": 1677,
      "à®ªà®µà®±": 1678,
      "à®©à®¸": 1679,
      "à®®à®ķà®©": 1680,
      "oh": 1681,
      "Ġà®®à®Łà®Ļ": 1682,
      "500": 1683,
      "Ġon": 1684,
      "Ġà®®à®¤à®¤": 1685,
      "ish": 1686,
      "Ġ1000": 1687,
      "à®²à®¯": 1688,
      "Ġà®¹à®µ": 1689,
      "Ġ150": 1690,
      "Ġà®®à®©à®®": 1691,
      "à®İà®°": 1692,
      "Ġg": 1693,
      "à¯Ī;": 1694,
      "à®µà®°à®©": 1695,
      "à®µà®Łà®ķ": 1696,
      "Ġ42": 1697,
      "à®Ĩà®ª": 1698,
      "Ġ44": 1699,
      "Ġ48": 1700,
      "Ġà®Ĳà®ª": 1701,
      "Ġà®Ĩà®ªà®¤": 1702,
      "1990": 1703,
      "à¯į!": 1704,
      "na": 1705,
      "ill": 1706,
      "Ġ1983": 1707,
      "à®ļà®ķà®®": 1708,
      "à®¤à®©à®¤": 1709,
      "Ġ1982": 1710,
      "à¯ĭ-": 1711,
      "Ġà®īà®¨": 1712,
      "à®ªà®Łà®ª": 1713,
      "à®īà®±": 1714,
      "Ġ1981": 1715,
      "74": 1716,
      "à®İà®ķ": 1717,
      "1980": 1718,
      "Ġ1979": 1719,
      "1996": 1720,
      "Ġ500": 1721,
      "Ġà®İà®ŀ": 1722,
      "Ġ1950": 1723,
      "Ġà®ªà®ª": 1724,
      "à®®à®³à®µ": 1725,
      ".,": 1726,
      "1989": 1727,
      "à®µà®ķà®®": 1728,
      "Ġà®ĩà®±à®Ļ": 1729,
      "qu": 1730,
      "à®Łà®¸": 1731,
      "ry": 1732,
      "ĠÂ°": 1733,
      "Ġà®ķà®®à®²": 1734,
      "Ġà®ªà®²à®®": 1735,
      "à®Łà®ªà®®": 1736,
      "Ġà®īà®ķ": 1737,
      "à®Ĩà®°à®®": 1738,
      "eb": 1739,
      "à®µà®²à®ķà®®": 1740,
      "Ġe": 1741,
      "à®ªà®ķà®¤": 1742,
      "Ġ2018": 1743,
      "Ġà®°à®·": 1744,
      "Ġ1978": 1745,
      "Ġà®ķà®´à®ķ": 1746,
      "1998": 1747,
      "Ġ51": 1748,
      "à´": 1749,
      "ord": 1750,
      "Ġ47": 1751,
      "à¯į?": 1752,
      "Ġà®¤à®²à®®": 1753,
      "Ġà®ħà®²à®Ļ": 1754,
      "1991": 1755,
      "Ġà®µà®¯à®²": 1756,
      "Ġà®²à®£": 1757,
      "à®²à®²": 1758,
      "150": 1759,
      "our": 1760,
      "Ġà®Ĵà®ķ": 1761,
      "Ġà®ļà®®à®ļ": 1762,
      "Ġ43": 1763,
      "Ġ1975": 1764,
      "nd": 1765,
      "à®ĩà®³": 1766,
      "ik": 1767,
      "Ġà®ħà®¸": 1768,
      "Ġà®Ĩà®¯à®°": 1769,
      "Ġà®ļà®ŀ": 1770,
      "ical": 1771,
      "ĠY": 1772,
      "Ġ#": 1773,
      "à®Ĵà®©": 1774,
      "ey": 1775,
      "Ġ1972": 1776,
      "Ġpp": 1777,
      "à®´à®µ": 1778,
      "att": 1779,
      "à¯ģ).": 1780,
      "Ġà®¤à®³à®Ļ": 1781,
      "Ġà®īà®Łà®©à®Ł": 1782,
      "Ġr": 1783,
      "Ġà®ªà®¤à®ķ": 1784,
      "Ġ1962": 1785,
      "à®ķà®¸": 1786,
      "à®ĩà®±à®ª": 1787,
      "ort": 1788,
      "ou": 1789,
      "Ġ2017": 1790,
      "ress": 1791,
      "à®µà®µ": 1792,
      "Ġ1947": 1793,
      "Ġà®ªà®´à®©": 1794,
      "Ġà®¨à®°à®ļ": 1795,
      "à¯ĩ\"": 1796,
      "Ġà®µà®³à®®": 1797,
      "Ch": 1798,
      "Ġà®Ĩà®´à®®": 1799,
      "Ġà®®à®°à®£à®®": 1800,
      "Ġà®ªà®¯à®£à®¤": 1801,
      "1997": 1802,
      "ind": 1803,
      "à®¤à®¤à®±": 1804,
      "Ġ49": 1805,
      "Ġ300": 1806,
      "Ġ1974": 1807,
      "à¯ģ(": 1808,
      "à®ķà®Łà®©": 1809,
      "Ġ41": 1810,
      "sh": 1811,
      "Ġ46": 1812,
      "Ġ1969": 1813,
      "ction": 1814,
      "ĠUn": 1815,
      "und": 1816,
      "à®®à®³": 1817,
      "Ġà®Ĳà®¯à®°": 1818,
      "à®īà®Ł": 1819,
      "Ġfor": 1820,
      "1994": 1821,
      "à®ĩà®¯": 1822,
      "Ġ55": 1823,
      "à®¯à®¤à®³à®®": 1824,
      "à®¨à®¤": 1825,
      "ational": 1826,
      "Ġ2021": 1827,
      "Ġà®²à®ķ": 1828,
      "Ġà®ħà®ķà®µ": 1829,
      "1977": 1830,
      "Ġà®İà®²à®ķ": 1831,
      "Ġà®Łà®ļ": 1832,
      "Ġà®īà®Ļ": 1833,
      "à®µà®³à®°": 1834,
      "Ġà®Łà®©": 1835,
      "à®¿),": 1836,
      "Ġ(\"": 1837,
      "Ġ64": 1838,
      "1995": 1839,
      "à®¨à®ªà®°": 1840,
      "à®¤à®ŀ": 1841,
      "Ġà®Ĳà®ļ": 1842,
      "Ġ1973": 1843,
      "Ġ1976": 1844,
      "à¯į\",": 1845,
      "ust": 1846,
      "Ġà®ļà®®à®¨": 1847,
      "à®°à®ªà®²": 1848,
      "Ġà®ķà®²à®ķ": 1849,
      "ment": 1850,
      "à®ªà®µà®®": 1851,
      "à®µà®°à®µ": 1852,
      "à®¿/": 1853,
      "Ġ1965": 1854,
      "Ġà¤": 1855,
      "Ġà®ķà®²à®Ļ": 1856,
      "à®ķà®Łà®µ": 1857,
      "Ġà®ķà®©à®µ": 1858,
      "Ġ52": 1859,
      "à®¤à®³à®µ": 1860,
      "Ġà®ħà®¯à®°": 1861,
      "à®Īà®°": 1862,
      "Ġà®ĵà®®": 1863,
      "1984": 1864,
      "Ġà®ªà®²à®ķ": 1865,
      "Ġà®ļà®®à®°": 1866,
      "à®²à®¯à®¤": 1867,
      "Ġà®ļà®®à®¸": 1868,
      "à®Īà®´à®¤": 1869,
      "ob": 1870,
      "à®¨à®µ": 1871,
      "à®ªà®¸": 1872,
      "à¯Ī'": 1873,
      "Ġà®®à®¤à®®": 1874,
      "man": 1875,
      "à®¤à®¤à®©": 1876,
      "à¯ģ..": 1877,
      "olog": 1878,
      "Ġk": 1879,
      "Ġà®¤à®Łà®µ": 1880,
      "Ġ;": 1881,
      "Ġà®¨à®Łà®°": 1882,
      "rit": 1883,
      "if": 1884,
      "à®ħà®Ļ": 1885,
      "à®¿(": 1886,
      "ric": 1887,
      "à®İà®ª": 1888,
      "ain": 1889,
      "Ġà®ĩà®¤à®°": 1890,
      "Ġà": 1891,
      "1992": 1892,
      "à®ķà®Łà®¤": 1893,
      "1987": 1894,
      "Ġà®¨à®Łà®©à®®": 1895,
      "à®®à®ŀ": 1896,
      "à®ªà®°à®¤": 1897,
      "400": 1898,
      "cy": 1899,
      "Ġ65": 1900,
      "à®©à®®à®£": 1901,
      "Ġà®ªà®£à®¤": 1902,
      "):": 1903,
      "Ġà®ħà®±à®ķ": 1904,
      "Ġà®¨à®Łà®ª": 1905,
      "Ġ1968": 1906,
      "à®¨à®µà®®": 1907,
      "à®µà®°à®ª": 1908,
      "Ġà®ĩà®²à®£": 1909,
      "Ġ1948": 1910,
      "Ġ1956": 1911,
      "ies": 1912,
      "à®ļà®®à®¯à®®": 1913,
      "ass": 1914,
      "Ġà®ļà®ļ": 1915,
      "à®ľà®¸": 1916,
      "1960": 1917,
      "ive": 1918,
      "Ġ1957": 1919,
      "Ġ03": 1920,
      "eg": 1921,
      "ial": 1922,
      "rom": 1923,
      "Ġà®µà®ļà®¨": 1924,
      "Ġ1964": 1925,
      "Ġà®Ĩà®µà®£à®Ļ": 1926,
      "à®¨à®©": 1927,
      "Ġà®ĩà®Łà®°": 1928,
      "Ġà®ħà®´à®±": 1929,
      "Ġà®ļà®®à®µ": 1930,
      "2016": 1931,
      "Ġà®ħà®ķà®´": 1932,
      "âĪĴ": 1933,
      "à®µà®´à®ķ": 1934,
      "Ġ56": 1935,
      "Ġ1952": 1936,
      "ith": 1937,
      "à®ķà®©à®®": 1938,
      "Ġà®ªà®²à®©": 1939,
      "à®ĵà®°": 1940,
      "ĠâĢĿ": 1941,
      "à®Ĵà®µ": 1942,
      "Ġ1961": 1943,
      "1970": 1944,
      "à®¯à®µà®©": 1945,
      "ure": 1946,
      "1985": 1947,
      "à®Ĵà®³": 1948,
      "à®Ĵà®²": 1949,
      "ĠAn": 1950,
      "Ġà®İà®µà®°": 1951,
      "Ġ1966": 1952,
      "à®°à®³à®¤": 1953,
      "Ġà®ªà®°à®¤": 1954,
      "ĠIndia": 1955,
      "Ġà®ħà®µà®©à®¤": 1956,
      "1993": 1957,
      "à®µà®¯": 1958,
      "Ġ04": 1959,
      "à®ķà®²à®¤": 1960,
      "à®ħà®¯": 1961,
      "à®²à®¨à®Ł": 1962,
      "Ġà®µà®³à®Ļ": 1963,
      "Ġ2020": 1964,
      "à®°à®ļà®©": 1965,
      "ib": 1966,
      "ear": 1967,
      "Ġà®İà®©à®²": 1968,
      "ĠEn": 1969,
      "Ġà®ªà®®": 1970,
      "1988": 1971,
      "à®¯à®£à®©": 1972,
      "à®ªà®²à®ķ": 1973,
      "%,": 1974,
      "Ġ1963": 1975,
      "Ġ1940": 1976,
      "à®¨à®ķà®°à®¤": 1977,
      "Ġà®ĵà®ª": 1978,
      "à®±à®Ł": 1979,
      "à®¤à®²à®¤": 1980,
      "à®®à®£à®¤": 1981,
      "à®ĩà®³à®®": 1982,
      "Ġ1930": 1983,
      "Ġà®ªà®Łà®ª": 1984,
      "à®īà®¯à®°": 1985,
      "ly": 1986,
      "Ġ53": 1987,
      "Ġ54": 1988,
      "Ġà®ªà®±à®ķ": 1989,
      "à®ªà®²à®®": 1990,
      "à®°à®ķà®®": 1991,
      "à®Łà®£à®®": 1992,
      "Ġà®Ĳà®¤à®°à®ļà®©": 1993,
      "à®ļà®©à®Ļ": 1994,
      "à®©à®´": 1995,
      "etri": 1996,
      "à¯į]": 1997,
      "âĢĶ": 1998,
      "ank": 1999,
      "end": 2000,
      "à®ªà®°à®Ļ": 2001,
      "Ġà®Ĭà®±": 2002,
      "Ġ400": 2003,
      "Ġà®ķà®µà®©à®¤": 2004,
      "ug": 2005,
      "à®ħà®´": 2006,
      "cl": 2007,
      "1986": 2008,
      "à®µà®©à®¨": 2009,
      "Ġà®ĩà®©à®ķ": 2010,
      "amil": 2011,
      "Ġà®ķà®³à®®": 2012,
      "Ġà®Łà®ª": 2013,
      "à®²à®ķà®¤": 2014,
      "Ġà®®à®£à®¨": 2015,
      "à®¯à®³à®µ": 2016,
      "à¥į": 2017,
      "ĨĴ": 2018,
      "ect": 2019,
      "à®ļà®©à®¤": 2020,
      "Ġà®ıà®Ł": 2021,
      "Ġà®¤à®°à®¤": 2022,
      "ence": 2023,
      "1978": 2024,
      "Ġ59": 2025,
      "ich": 2026,
      "à®¾:": 2027,
      "à®İà®ĥà®ª": 2028,
      "à®ķà®¯": 2029,
      "Ġà®ľà®©à®¨": 2030,
      "à®©à®Łà®®": 2031,
      "per": 2032,
      "à®¯à®°à®Ļ": 2033,
      "ĠAr": 2034,
      "à®ķà®²à®ª": 2035,
      "Ġ58": 2036,
      "à®¤à®ķà®Ļ": 2037,
      "aj": 2038,
      "1981": 2039,
      "Ġ1959": 2040,
      "Ġ72": 2041,
      "Ġà®Ĳà®®": 2042,
      "ont": 2043,
      "à®ĩà®µà®°à®¤": 2044,
      "ld": 2045,
      "Ġà®ªà®²à®¤": 2046,
      "à®µà®ļà®®": 2047,
      "1982": 2048,
      "etriev": 2049,
      "Ġ120": 2050,
      "ÃĹ": 2051,
      "Ġà®ĩà®°à®ļ": 2052,
      "à®µà®ŀ": 2053,
      "à®¨à®¨": 2054,
      "Ġà®¨à®²à®©": 2055,
      "à®ªà®´à®®": 2056,
      "etrieved": 2057,
      "à®°à®ķà®¤": 2058,
      "1979": 2059,
      "ivers": 2060,
      "Ġ1954": 2061,
      "à®ĥà®ķ": 2062,
      "Th": 2063,
      "à®°à®±": 2064,
      "à®¹à®®": 2065,
      "Ġà®ĵà®°à®³à®µ": 2066,
      "Ġst": 2067,
      "Ġ63": 2068,
      "ee": 2069,
      "Ġ1958": 2070,
      "Ġ57": 2071,
      "à®ķà®µà®¤": 2072,
      "ern": 2073,
      "ĠII": 2074,
      "Ġà®ĵà®²": 2075,
      "à®µà®ķà®¤": 2076,
      "Ġà®°à®Ļ": 2077,
      "Ġby": 2078,
      "Ġà®ªà®ķà®²": 2079,
      "Ġre": 2080,
      "Ġà®Ĩà®µà®£à®ª": 2081,
      "Ġ...": 2082,
      "1983": 2083,
      "ong": 2084,
      "aw": 2085,
      "à®¤à®ķà®°": 2086,
      "à®ħà®¤à®©": 2087,
      "1967": 2088,
      "Ġà®ħà®°à®ķ": 2089,
      "à®īà®£": 2090,
      "à®Ĵà®Ł": 2091,
      "Ġ66": 2092,
      "à®¯à®²à®²": 2093,
      "à®£à®®à®²": 2094,
      "ack": 2095,
      "Ġà®Łà®µ": 2096,
      "à®¯à®®à®Ł": 2097,
      "ann": 2098,
      "Ġà®®à®¹": 2099,
      "ĠâĢĻ": 2100,
      "Ġà®®à®£à®²": 2101,
      "Ġ01": 2102,
      "ach": 2103,
      "à¯į|": 2104,
      "1975": 2105,
      "ond": 2106,
      "Ġ1951": 2107,
      "à®ªà®¤à®®": 2108,
      "2019": 2109,
      "Ġà®īà®²à®°": 2110,
      "Ġà®İà®ĥà®ª": 2111,
      "à¯ģ.\"": 2112,
      "à®ĩà®¯à®ķ": 2113,
      "uk": 2114,
      "Ġà®¤à®³à®°": 2115,
      "Ġà®°à®®": 2116,
      "Ġ78": 2117,
      "Ġà®ļà®°à®ķ": 2118,
      "à®²à®ķà®Ļ": 2119,
      "ide": 2120,
      "à®Łà®ªà®¤": 2121,
      "à®£à®¯à®®": 2122,
      "Ġ2022": 2123,
      "St": 2124,
      "ics": 2125,
      "Ġà®®à®ķà®°": 2126,
      "à®ļà®©à®²": 2127,
      "1971": 2128,
      "Ġà®¤à®°à®¨": 2129,
      "ci": 2130,
      "à®¨à®±": 2131,
      "ĠÐ": 2132,
      "NA": 2133,
      "Ġà®ķà®³à®Ļ": 2134,
      "Ġ1945": 2135,
      "à®µà®©à®°": 2136,
      "Ġà®ħà®ķà®²à®®": 2137,
      "ĠÂ": 2138,
      "ism": 2139,
      "1962": 2140,
      "à®±à®¨à®ķà®°": 2141,
      "istory": 2142,
      "à¤¾": 2143,
      "Ġ77": 2144,
      "Ġà®Ĭà®Łà®ķà®Ļ": 2145,
      "2021": 2146,
      "ru": 2147,
      "ex": 2148,
      "Ġà®Īà®¸": 2149,
      "\",": 2150,
      "Ø§": 2151,
      "Ġà®ħà®®à®²": 2152,
      "Ġà®ħà®°à®ļà®®à®°à®ª": 2153,
      "à®ķà®³à®ŀ": 2154,
      "Ġ68": 2155,
      "ĠTh": 2156,
      "1972": 2157,
      "à¯Ī(": 2158,
      "à®īà®®": 2159,
      "ĠCom": 2160,
      "1974": 2161,
      "''": 2162,
      "Ġà®ķà®µà®²": 2163,
      "à®®à®°à®©": 2164,
      "ĠRetrieved": 2165,
      "à®°à®ŀ": 2166,
      "Ġà®¤à®®à®ķ": 2167,
      "Ġ02": 2168,
      "Ġ85": 2169,
      "ohn": 2170,
      "à®Ĳà®¨": 2171,
      "Ġà®ħà®ķà®®à®¤": 2172,
      "à®µà®²à®ļ": 2173,
      "1976": 2174,
      "Ġà®ķà®£à®µà®°": 2175,
      "à®³à®Ł": 2176,
      "An": 2177,
      "...": 2178,
      "à®®à®°à®®": 2179,
      "Ġà®ĵà®µà®°": 2180,
      "à®īà®£à®µ": 2181,
      "ĠNew": 2182,
      "Ġ1949": 2183,
      "1965": 2184,
      "à²": 2185,
      "Ġ),": 2186,
      "à®³à®Łà®Ļ": 2187,
      "Ġ79": 2188,
      "Ġà®®à®°à®£à®¤": 2189,
      "à®°à®µà®¤": 2190,
      "1957": 2191,
      "à®¯à®ªà®Ł": 2192,
      "ss": 2193,
      "à®´à®ķà®®": 2194,
      "à®ķà®Łà®®": 2195,
      "Ġ76": 2196,
      "Ġ67": 2197,
      "In": 2198,
      "Ġ<": 2199,
      "ark": 2200,
      "ook": 2201,
      "ie": 2202,
      "à®īà®Łà®²": 2203,
      "AT": 2204,
      "à®°à®¤à®¤": 2205,
      "Ġ62": 2206,
      "à®ıà®°": 2207,
      "à®©à®ŀ": 2208,
      "iss": 2209,
      "Ġ1955": 2210,
      "à®µà®¯à®¤": 2211,
      "Ġà®µà®°à®ª": 2212,
      "à®Łà®¯à®®": 2213,
      "Ġà®ħà®ľ": 2214,
      "Ġà®¨à®ª": 2215,
      "Ġ1953": 2216,
      "Ġà®¤à®°à®µà®°": 2217,
      "à®µà®¯à®²": 2218,
      "à®ķà®®à®²": 2219,
      "Ġà®ªà®²à®µà®ķ": 2220,
      "Ġ99": 2221,
      "ĠâĪĴ": 2222,
      "à®ªà®ķà®±": 2223,
      "à®¤à®³à®Ļ": 2224,
      "istri": 2225,
      "ous": 2226,
      "Ġ74": 2227,
      "Ġà®ħà®¯à®²": 2228,
      "à®ķà®ŀ": 2229,
      "à®µà®°à®ķ": 2230,
      "à®¤à®©à®Ļ": 2231,
      "upright": 2232,
      "Ġ69": 2233,
      "ium": 2234,
      "orld": 2235,
      "Ġ73": 2236,
      "iversity": 2237,
      "ĠAl": 2238,
      "1947": 2239,
      "Ġde": 2240,
      "sp": 2241,
      "Ġ1920": 2242,
      "2018": 2243,
      "Ġ81": 2244,
      "mer": 2245,
      "son": 2246,
      "1969": 2247,
      "à®¯à®®à®²": 2248,
      "Ġ1946": 2249,
      "ĠSh": 2250,
      "à®µà®£à®©": 2251,
      "Ġà®¹à®©": 2252,
      "az": 2253,
      "Ġà®ķà®£à®µà®©": 2254,
      "tern": 2255,
      "ore": 2256,
      "à®¤à®°à®ķà®®": 2257,
      "Ġ83": 2258,
      "à®ķà®²à®Ļ": 2259,
      "Ġà®®à®°à®ķ": 2260,
      "1968": 2261,
      "Cl": 2262,
      "à®ļà®¯à®®": 2263,
      "1973": 2264,
      "Ġà®¤à®µà®®": 2265,
      "à®¸à®©": 2266,
      "à®¤à®°à®¤": 2267,
      "à®·à®®": 2268,
      "Ġ1944": 2269,
      "Ġà®¤à®ķà®Ł": 2270,
      "à¯į...": 2271,
      "Ġà®ªà®²à®µà®±": 2272,
      "à®¾'": 2273,
      "Ġà®ħà®°à®µ": 2274,
      "ľĵ": 2275,
      "à®Łà®µà®©": 2276,
      "Ġà®ĩà®³à®µà®°à®ļà®°": 2277,
      "Ġà®Ĭà®´à®²": 2278,
      "Ġà®Ĳà®¯": 2279,
      "à®ķà®©à®Ł": 2280,
      "à®®à®´": 2281,
      "à®ľà®©à®µà®°": 2282,
      "Ġ95": 2283,
      "à®ıà®´": 2284,
      "à®ªà®¤à®µ": 2285,
      "ology": 2286,
      "à¯Ī),": 2287,
      "à®®à®ķà®³": 2288,
      "à¤°": 2289,
      "à®ķà®µà®©": 2290,
      "à®¾à¯į": 2291,
      "Ġà®¨à®²à®®": 2292,
      "hy": 2293,
      "à®³à®¨": 2294,
      "1950": 2295,
      "oun": 2296,
      "à®²à®µà®©": 2297,
      "à®·à®©à®²": 2298,
      "ork": 2299,
      "à®¤à®°à®Ļ": 2300,
      "ĠQ": 2301,
      "à®¯à®ķà®ª": 2302,
      "Ġà®¹à®®": 2303,
      "Ġ71": 2304,
      "Ġ61": 2305,
      "1952": 2306,
      "Ġ1941": 2307,
      "Ġ1936": 2308,
      "ĠâĨĴ": 2309,
      "à®µà®²à®¤": 2310,
      ".\"": 2311,
      "à¯ĩ!": 2312,
      "IS": 2313,
      "Ġà®Ĵà®¯": 2314,
      "org": 2315,
      "pt": 2316,
      "ost": 2317,
      "à¯į+": 2318,
      "à¶": 2319,
      "Ġ101": 2320,
      "à®ļà®©à®µà®°": 2321,
      "ult": 2322,
      "à®¯à®©à®µ": 2323,
      "amp": 2324,
      "à®¯à®¤à®±": 2325,
      "à®ķà®£à®¤": 2326,
      "Ġ1939": 2327,
      "Ġâľĵ": 2328,
      "à®ľà®ļ": 2329,
      "à®Ĩà®¸": 2330,
      "istrict": 2331,
      "à®īà®ª": 2332,
      "ĠPress": 2333,
      "uc": 2334,
      "à¯ģâĢĿ": 2335,
      "Ġ82": 2336,
      "ĠZ": 2337,
      "ite": 2338,
      "1959": 2339,
      "1956": 2340,
      "ember": 2341,
      "à®Łà®²à®Ļ": 2342,
      "iz": 2343,
      "à°": 2344,
      "à®°à®ľ": 2345,
      "à®®à®¤à®®": 2346,
      "Ġà®ĩà®¤à®¯à®¤": 2347,
      "Ġ250": 2348,
      "=\"": 2349,
      "Ġà®Īà®ļ": 2350,
      "à®¿à¯į": 2351,
      "ori": 2352,
      "Ġà®Ĩà®²à®¯à®¤": 2353,
      "ĠPro": 2354,
      "à¯Ģ,": 2355,
      "Ġà®ıà®®": 2356,
      "Ġà®ıà®ŀ": 2357,
      "Ġ600": 2358,
      "1964": 2359,
      "à®¤à®¸": 2360,
      "Al": 2361,
      "à®°à®µà®®": 2362,
      "Ġà®ħà®³à®ķ": 2363,
      "ace": 2364,
      "Ġà®ĩà®³à®¨": 2365,
      "à®ķà®´à®ķà®Ļ": 2366,
      "Ġ--": 2367,
      "2017": 2368,
      "hi": 2369,
      "Ġ88": 2370,
      "à®£à®¨": 2371,
      "Ġà®īà®ªà®¨": 2372,
      "à®Ĩà®©à®¨": 2373,
      "Ġà®ķà®³à®¤": 2374,
      "AN": 2375,
      "Ġà®¨à®®à®¤": 2376,
      "à®ĵà®Ł": 2377,
      "Ġà®®à®©à®¨": 2378,
      "à·": 2379,
      "Ġà®ħà®©à®¨": 2380,
      "amb": 2381,
      "à®¯à®¤à®©": 2382,
      "1963": 2383,
      "Ġal": 2384,
      "à¯ģ|": 2385,
      "à®¤à®ķà®µà®²": 2386,
      "Ġà®ħà®ķà®®": 2387,
      "Ġà®ĩà®°à®ķà®ļ": 2388,
      "Ġà®ķà®£à®ªà®¤": 2389,
      "Ġ96": 2390,
      "Ġà®Ĩà®¤à®°à®µà®³": 2391,
      "à®®à®°à®¤": 2392,
      "1966": 2393,
      "à®°à®´": 2394,
      "à®¤à®µà®¤": 2395,
      "Ġ1937": 2396,
      "à®¨à®ķà®°à®ª": 2397,
      "Ġà®ļà®°à®£à®Ł": 2398,
      "à®ıà®©": 2399,
      "ubl": 2400,
      "BC": 2401,
      "à®¿âĢĻ": 2402,
      "Ġ84": 2403,
      "yn": 2404,
      "Ġà®īà®µà®®": 2405,
      "Ġ98": 2406,
      "III": 2407,
      "à®²à®ľ": 2408,
      "ett": 2409,
      "Ġà®²à®µ": 2410,
      "à®°à®¹": 2411,
      "à®ĥà®ªà®°": 2412,
      "à®ļà®²à®ª": 2413,
      "Ġy": 2414,
      "à®°à®¤à®°": 2415,
      "à®µà®¸": 2416,
      "à®ķà®°à®°": 2417,
      "Ġ1938": 2418,
      "à®©à®®à®²à®°": 2419,
      "à®ĩà®¸": 2420,
      "Ġà®¨à®®à®ķ": 2421,
      "à®ħà®³": 2422,
      "Ġ05": 2423,
      "Ġà®µà®ŀ": 2424,
      "à®°à®®à®®": 2425,
      "Ġà®ıà®±à®ķ": 2426,
      "à¯Ģ)": 2427,
      "à®ıà®±": 2428,
      "à®©à®µà®©": 2429,
      "à®ļà®ķà®¤": 2430,
      "Ġà®¨à®ŀ": 2431,
      "1954": 2432,
      "à®²à®µà®±": 2433,
      "Ġà®Ĭà®ļ": 2434,
      "Ã©": 2435,
      "Ġor": 2436,
      "à®¨à®Łà®¤": 2437,
      "Ġà®ħà®ķà®¨": 2438,
      "Ġà®ĩà®´à®ķ": 2439,
      "à®¯à®²à®°": 2440,
      "1940": 2441,
      "à®ķà®°à®ļ": 2442,
      "ĠHistory": 2443,
      "Ġà®īà®ªà®ķà®°": 2444,
      "ood": 2445,
      "à¦": 2446,
      "à®ħà®³à®µ": 2447,
      "Ġà®ķà®£à®®": 2448,
      "1948": 2449,
      "CO": 2450,
      "à®¨à®²à®µ": 2451,
      "à¯ģ/": 2452,
      "Ġ1943": 2453,
      "Ġà®ĩà®³à®µà®°à®ļ": 2454,
      "ÙĦ": 2455,
      "à®±à®±": 2456,
      "Ġ86": 2457,
      "ition": 2458,
      "à®°à®µà®©": 2459,
      "à®ªà®µà®¤": 2460,
      "à®°à®ªà®ŀ": 2461,
      "Ġ1931": 2462,
      "raph": 2463,
      "à®¾/": 2464,
      ");": 2465,
      "à®ķà®°à®ª": 2466,
      "à®Ĩà®¨": 2467,
      "Ġà®ķà®³à®ŀ": 2468,
      "1955": 2469,
      "1945": 2470,
      "Ġ1942": 2471,
      "à®®à®¯à®®": 2472,
      "ron": 2473,
      "enter": 2474,
      "io": 2475,
      "Ġà®®à®¯à®ķ": 2476,
      "à®¨à®ķ": 2477,
      "1958": 2478,
      "ĠUniversity": 2479,
      "à®ħà®ŀ": 2480,
      "à®ªà®¯à®£à®®": 2481,
      "))": 2482,
      "ue": 2483,
      "ice": 2484,
      "ha": 2485,
      "Ġ1935": 2486,
      "101": 2487,
      "600": 2488,
      "ton": 2489,
      "à®Łà®°à®Ļ": 2490,
      "ĠUS": 2491,
      "Ġà®µà®´à®®": 2492,
      "Ġ?": 2493,
      "ĠMar": 2494,
      "Ġà®²à®¤": 2495,
      "Ġà®ħà®µà®ļà®°": 2496,
      "AS": 2497,
      "ensus": 2498,
      "Ġà®ªà®Łà®²à®®": 2499,
      "erv": 2500,
      "Ġ1934": 2501,
      "Ġà®ķà®¤à®µ": 2502,
      "ata": 2503,
      "à®¯à®®à®°": 2504,
      "iy": 2505,
      "à®µà®²à®®": 2506,
      "ict": 2507,
      "à®Ĩà®ķà®¸": 2508,
      "à®Łà®¯": 2509,
      "Ġ108": 2510,
      "Ar": 2511,
      "Ġà®ĩà®°à®ķ": 2512,
      "Ġà®ľà®µ": 2513,
      "Ġ87": 2514,
      "à®´à®°à®ļ": 2515,
      "à®ļà®±": 2516,
      "à®£à®¯à®Ļ": 2517,
      "Ġà®ħà®ļà®²": 2518,
      "à®Łà®ļà®ª": 2519,
      "Ġà®ļà®©à®¨": 2520,
      "Ġ1923": 2521,
      "1961": 2522,
      "à®¿;": 2523,
      "Ġà®īà®ķà®¨": 2524,
      "à®İà®Ļ": 2525,
      "Ġà®ĩà®¤à®¯": 2526,
      "à®©à®ķà®¤": 2527,
      "edia": 2528,
      "nail": 2529,
      "à¯į\".": 2530,
      "âĢĺ": 2531,
      "ica": 2532,
      "sl": 2533,
      "à®Łà®Łà®ķ": 2534,
      "Ġà®ļà®¯": 2535,
      "IC": 2536,
      "Ð¾": 2537,
      "thumbnail": 2538,
      ".)": 2539,
      "ne": 2540,
      "Ġ1929": 2541,
      "à®±à®®à®Ł": 2542,
      "à®īà®©": 2543,
      "1953": 2544,
      "ple": 2545,
      "ons": 2546,
      "Ġà®ıà®¨": 2547,
      "Ġ2024": 2548,
      "à®©à®ļà®°": 2549,
      "à®¯à®£à®®": 2550,
      "à®ķà®©à®Ļ": 2551,
      "Ġà®ªà®ķà®µ": 2552,
      "Ġà®°à®ª": 2553,
      "act": 2554,
      "Ġà®¤à®ķà®°": 2555,
      "à®ľà®¯à®ķ": 2556,
      "à®²à®ķà®²": 2557,
      "AP": 2558,
      "ĠÃĹ": 2559,
      "à®¤à®µà®®": 2560,
      "rin": 2561,
      "Ùİ": 2562,
      "1951": 2563,
      "à¯Ī]": 2564,
      "à®Łà®¤à®±": 2565,
      "à®Łà®©à®®": 2566,
      "à¯ĩ-": 2567,
      "à®®à®£à®°": 2568,
      "Ġ2023": 2569,
      "\".": 2570,
      "les": 2571,
      "ĠØ": 2572,
      "Ġà®®à®Łà®®": 2573,
      "à¯Ĥ,": 2574,
      "Ġà®Īà®ķ": 2575,
      "Ġà®®à®°à®£": 2576,
      "à®©à®ļà®®": 2577,
      "Ġà®¯à®®": 2578,
      "Ġà®ªà®¯à®Ļ": 2579,
      "à®ķà®°à®µ": 2580,
      "Ġà®µà®£à®ķ": 2581,
      "à¯į.)": 2582,
      "Ġà®ħà®±à®¨": 2583,
      "à®¹à®©": 2584,
      "à®°à®ªà®¤": 2585,
      "Ġà®ªà®ķà®¤": 2586,
      "Ġà®Ĵà®ļ": 2587,
      "oy": 2588,
      "à¯į.,": 2589,
      "are": 2590,
      "IP": 2591,
      "Ð°": 2592,
      "à®©à®°à®²": 2593,
      "Ġà®ķà®°à®Ł": 2594,
      "CH": 2595,
      "Ġat": 2596,
      "à®¤à®®à®Ł": 2597,
      "Ġpro": 2598,
      "à®©à®Łà®¤": 2599,
      "Ġà®ĩà®µà®©à®¤": 2600,
      "ae": 2601,
      "Ġ00": 2602,
      "à®ªà®©à®µ": 2603,
      "Ġ1933": 2604,
      "350": 2605,
      "Ġ89": 2606,
      "Ġà®µà®ļà®©à®®": 2607,
      "à®Łà®¤à®©": 2608,
      "à®®à®£à®©": 2609,
      "à®ħà®´à®ķ": 2610,
      "1949": 2611,
      "à®ķà®°à®µà®°": 2612,
      "ock": 2613,
      "Ġ*": 2614,
      "à®Ĩà®ķà®¤": 2615,
      "à®Łà®ķà®ķ": 2616,
      "à®µà®²à®ķà®¤": 2617,
      "1944": 2618,
      "ana": 2619,
      "1942": 2620,
      "Ġà®µà®²à®®": 2621,
      "800": 2622,
      "rid": 2623,
      "row": 2624,
      "à®ªà®´à®Ļ": 2625,
      "ley": 2626,
      "à®ķà®®à®Ł": 2627,
      "Ġà®ļà®®à®ķ": 2628,
      "ire": 2629,
      "Ġà®Ĩà®°à®£": 2630,
      "ick": 2631,
      "ign": 2632,
      "Ġà®°à®ľ": 2633,
      "1946": 2634,
      "Ġà®ħà®ķà®²": 2635,
      "Ġà®ķà®Łà®ķ": 2636,
      "Ġà®Ĭà®Łà®ķà®µ": 2637,
      "Ġà®ļà®®à®¤": 2638,
      "à®¹à®µ": 2639,
      "Ġ93": 2640,
      "har": 2641,
      "Ġ1924": 2642,
      "à®İà®¨": 2643,
      "ĠEd": 2644,
      "700": 2645,
      "âĢľ": 2646,
      "Ġ91": 2647,
      "Ġ1932": 2648,
      "app": 2649,
      "120": 2650,
      "à®Ĩà®µ": 2651,
      "Ġà®ªà®ķà®µà®¤": 2652,
      "Ġ92": 2653,
      "stit": 2654,
      "Ġà®°à®ŀ": 2655,
      "Ġà®®à®µ": 2656,
      "à¯ģ?": 2657,
      "à®ķà®©à®¤": 2658,
      "Ġ1928": 2659,
      "Ġà®ķà®²à®®": 2660,
      "à®ĩà®Łà®¤": 2661,
      "Ġà®®à®©à®ª": 2662,
      "ase": 2663,
      "Ġà®ĩà®²à®µà®ļ": 2664,
      "âĢ¢": 2665,
      "à®ĩà®¤à®±": 2666,
      "Ġà®ĩà®³à®µ": 2667,
      "Ġà®ļà®°à®¸": 2668,
      "yst": 2669,
      "à®ªà®¯à®£": 2670,
      "à®©à®±": 2671,
      "Ġà®ªà®±à®¨": 2672,
      "à®²à®ķà®£": 2673,
      "à®ªà®±à®µ": 2674,
      "Ġ1921": 2675,
      "à®Ĵà®ª": 2676,
      "Ġ1925": 2677,
      "à®°à®³à®®": 2678,
      "ĠCensus": 2679,
      "Ġch": 2680,
      "ĠTamil": 2681,
      "Ġà®ĩà®²à®µà®ļà®®": 2682,
      "alt": 2683,
      "Ġ97": 2684,
      "à®¤à®ķà®µ": 2685,
      "à®ĩà®¤à®´": 2686,
      "uth": 2687,
      "à®ªà®µà®Ļ": 2688,
      "Ġà®°à®ķà®ļ": 2689,
      "à®¯à®²à®±": 2690,
      "Ġ110": 2691,
      "ef": 2692,
      "ulation": 2693,
      "1930": 2694,
      "à®ļà®°à®¤": 2695,
      "à®ļà®°à®µ": 2696,
      "ĠCol": 2697,
      "orm": 2698,
      "Ġà®®à®Łà®¤": 2699,
      "Ġà®Łà®ķ": 2700,
      "à®ķà®µà®¤à®°": 2701,
      "à®ķà®³à®µà®°": 2702,
      "à®ħà®µà®©": 2703,
      "à®¯à®ķà®ķ": 2704,
      "Ġ1918": 2705,
      "ĠEx": 2706,
      "Ġà®ķà®ľ": 2707,
      "à®¤à®µà®ķ": 2708,
      "ash": 2709,
      "Ġà®¤à®³à®µ": 2710,
      "Ġ1900": 2711,
      "Ġà®¤à®°à®ķ": 2712,
      "yl": 2713,
      "cess": 2714,
      "à¯ģâĢĻ": 2715,
      "Ġà®Ĩà®Łà®®": 2716,
      "Ġà®ĩà®£à®ķ": 2717,
      "Ġà®ĩà®µà®³": 2718,
      "1941": 2719,
      "à®Łà®¯à®Ļ": 2720,
      "Ġà®¤à®Łà®Ļ": 2721,
      "Ġ1927": 2722,
      "à®¤à®Łà®®": 2723,
      "AR": 2724,
      "à®±à®µà®©": 2725,
      "à®ŀà®©": 2726,
      "Ġ1926": 2727,
      "Ġfrom": 2728,
      "Ð¸": 2729,
      "Ġà®®à®Łà®ķ": 2730,
      "ated": 2731,
      "Ġ94": 2732,
      "à®Ĵà®¤": 2733,
      "à¯ĩ)": 2734,
      "Ġà®Ĩà®¤à®²": 2735,
      "à®µà®Łà®®": 2736,
      "lect": 2737,
      "Ġ06": 2738,
      "ĠCl": 2739,
      "bert": 2740,
      "Ġà®®à®¸": 2741,
      "gl": 2742,
      "à®ªà®£à®®": 2743,
      "Ġà®Ĭà®©": 2744,
      "à®ĩà®°à®¤": 2745,
      "Ġà®ļà®®à®¯à®ª": 2746,
      "one": 2747,
      "à®·à®°": 2748,
      "240": 2749,
      "ott": 2750,
      "Ġà®Łà®°": 2751,
      "à®ĩà®°à®Ł": 2752,
      "à¯ĪâĢĿ": 2753,
      "à®¤à®²à®Ļ": 2754,
      "Ġ1922": 2755,
      "ma": 2756,
      "Ġà®ħà®ªà®°": 2757,
      "à®ħà®ķà®¤": 2758,
      "ara": 2759,
      "à®²à®³": 2760,
      "à®¤à®µà®³": 2761,
      "eng": 2762,
      "ER": 2763,
      "Ġ1917": 2764,
      "à®¤à®®à®Ļ": 2765,
      "ĠIS": 2766,
      "à®²à®ķà®°": 2767,
      "à®ķà®²à®ķ": 2768,
      "Ġà®ľà®¸": 2769,
      "Ġà®Ĳà®Ł": 2770,
      "FC": 2771,
      "à®Łà®Łà®®": 2772,
      "Ġ---": 2773,
      "Ġà®Īà®°à®ª": 2774,
      "à®°à®ľà®©": 2775,
      "res": 2776,
      "Ġis": 2777,
      "Ġà®ķà®¸": 2778,
      "Ġà®®à®©à®ļ": 2779,
      "Ġà®ľà®²": 2780,
      "au": 2781,
      "Î±": 2782,
      "Ġà®®à®¤à®°": 2783,
      "à®¤à®©à®©": 2784,
      "à®µà®©à®µ": 2785,
      "180": 2786,
      "John": 2787,
      "à®²à®µà®°à®ª": 2788,
      "àµ": 2789,
      "à®¿âĢĿ": 2790,
      "à®¤à®µà®±": 2791,
      "Ġà®İà®©à®ļ": 2792,
      "ĠSp": 2793,
      "Ġ1914": 2794,
      "ĠVol": 2795,
      "ĠWorld": 2796,
      "ames": 2797,
      "oci": 2798,
      "2022": 2799,
      "ight": 2800,
      "à®µà®³à®®": 2801,
      "à®ĩà®¯à®²": 2802,
      "à®°à®¤à®Ļ": 2803,
      "à®Ĳà®¤à®°": 2804,
      "à®ªà®¯à®£à®¤": 2805,
      "ox": 2806,
      "Ġ180": 2807,
      "Ġ07": 2808,
      "Ġà®ļà®®à®£": 2809,
      "ral": 2810,
      "rad": 2811,
      "Ġ140": 2812,
      "cycl": 2813,
      "oth": 2814,
      "Ġà®µà®©à®µ": 2815,
      "à®ªà®°à®£": 2816,
      "ans": 2817,
      "Ġà®ļà®©à®¤": 2818,
      "à®ķà®®à®®": 2819,
      "2020": 2820,
      "Ġà®ķà®£à®¤": 2821,
      "ile": 2822,
      "sm": 2823,
      "à®ªà®¯à®°": 2824,
      "Ġà®µà®©à®ª": 2825,
      "ance": 2826,
      "à®ĥà®¤": 2827,
      "Ġà®ħà®ķà®ª": 2828,
      "à®ħà®°à®ª": 2829,
      "à¤¿": 2830,
      "Ġà®®à®®": 2831,
      "ations": 2832,
      "CC": 2833,
      "ech": 2834,
      "Ġà®īà®Łà®®": 2835,
      "1936": 2836,
      "à®©à®µà®±": 2837,
      "Ġà®ªà®£à®ķ": 2838,
      "Ġ800": 2839,
      "Ġ900": 2840,
      "ĠDistrict": 2841,
      "Ġà®ħà®ķà®©": 2842,
      "1939": 2843,
      "/-": 2844,
      "US": 2845,
      "||": 2846,
      "à®±à®³à®µ": 2847,
      "Ġà®ķà®´à®ķà®Ļ": 2848,
      "Ġà®®à®°à®£à®®à®Ł": 2849,
      "Ġà®¨à®ķà®²": 2850,
      "Ġà®ªà®¯à®£à®Ļ": 2851,
      "ograph": 2852,
      "Ðµ": 2853,
      "Ġà®ľà®ķ": 2854,
      "Ġ125": 2855,
      "Ġà®ªà®¸": 2856,
      "Ġà®Ĩà®µà®£à®®": 2857,
      "à®Łà®ªà®Ł": 2858,
      "à®°à®®à®©": 2859,
      "cyclop": 2860,
      "à®²à®¯à®Ļ": 2861,
      "Ġ1919": 2862,
      "ame": 2863,
      "Sh": 2864,
      "Ġà®¨à®³": 2865,
      "Ġà®ħà®©à®²": 2866,
      "Ġà®ĩà®£à®Ļ": 2867,
      "Ġ000": 2868,
      "AM": 2869,
      "à¯ĭ\"": 2870,
      "Ġà®īà®ªà®¤": 2871,
      "à®°à®®à®Ļ": 2872,
      "Ġà®Īà®´": 2873,
      "à¯Ī).": 2874,
      "à¯ĭ)": 2875,
      "ins": 2876,
      "Ġà®ĩà®³à®µà®°à®ļà®©": 2877,
      "Ġà®µà®ļà®®": 2878,
      "à®ªà®ķà®²": 2879,
      "Ġà®Ĩà®¯à®¤": 2880,
      "Ġà®İà®ĥà®ķ": 2881,
      "ala": 2882,
      "Ġ130": 2883,
      "Ġà®¨à®²à®¤": 2884,
      "à®ĵà®®": 2885,
      "à®ļà®°à®®": 2886,
      "à®µà®²à®©": 2887,
      "ver": 2888,
      "ani": 2889,
      "Ġà®ĩà®³à®ŀ": 2890,
      "Ind": 2891,
      "Ġà®ĩà®¤à®¯à®®": 2892,
      "Ġ1910": 2893,
      "illi": 2894,
      "old": 2895,
      "AC": 2896,
      "à®©à®ķà®°à®©": 2897,
      "Ġà®ħà®ķà®ļ": 2898,
      "à®Ĵà®±": 2899,
      "SP": 2900,
      "à®Łà®ķà®ª": 2901,
      "Ġà®®à®ķà®¤": 2902,
      "Ġà®°à®¸": 2903,
      "Ġà®®à®¤à®Ļ": 2904,
      "Ġà®ķà®ķ": 2905,
      "oll": 2906,
      "à®ķà®°à®Ł": 2907,
      "à®®à®¹": 2908,
      "à®³à®³à®µ": 2909,
      "Ġà®®à®Łà®²": 2910,
      "Ġà®ħà®·": 2911,
      "à®°à®®à®¤": 2912,
      "Ġà®ıà®µà®ª": 2913,
      "Ġà®¤à®®à®©": 2914,
      "ari": 2915,
      "ates": 2916,
      "1937": 2917,
      "Ġà®ĩà®®à®¯à®®à®²": 2918,
      "Ġà®¨à®ķà®°à®ª": 2919,
      "Ġà®ħà®Łà®®": 2920,
      "Ġà®¯à®ª": 2921,
      "Ġà®Ĭà®Łà®ķà®¤": 2922,
      "à®Ĳà®Ł": 2923,
      "ĠPop": 2924,
      "à®¤à®¯à®®": 2925,
      "à®Łà®µà®®": 2926,
      "Ġà®µà®°à®ķ": 2927,
      "Ġà®ĩà®¯à®²à®µ": 2928,
      "Ġ700": 2929,
      "Ġ160": 2930,
      "à®Ĩà®³": 2931,
      "alay": 2932,
      "NS": 2933,
      "Ġà®Ĩà®²à®©": 2934,
      "red": 2935,
      "Ġà®ķà®³à®µ": 2936,
      "Ġ2025": 2937,
      "à¯Ģ.;": 2938,
      "1943": 2939,
      "ystem": 2940,
      "à®¤à®®à®©": 2941,
      "à®İà®©à®µ": 2942,
      "à®ĩà®Łà®®": 2943,
      "à®®à®°à®ķ": 2944,
      "Ġà®Ĩà®µà®£": 2945,
      "Ġ1500": 2946,
      "outh": 2947,
      "eh": 2948,
      "à®ªà®´à®ķ": 2949,
      "à®·à®²": 2950,
      "Ġà®ħà®µà®³à®¤": 2951,
      "IT": 2952,
      "à®¾(": 2953,
      "Ġà®°à®©": 2954,
      "à®¯à®®à®Ļ": 2955,
      "rist": 2956,
      "enn": 2957,
      "Ġà®ħà®°à®ļà®µ": 2958,
      "Ġà®ªà®£à®µ": 2959,
      "ET": 2960,
      "Äģ": 2961,
      "ĠAp": 2962,
      "ail": 2963,
      "Ùħ": 2964,
      "à®ªà®³à®®": 2965,
      "Ġ118": 2966,
      "Ġ1912": 2967,
      "Ġ1908": 2968,
      "1920": 2969,
      "à®·à®¤": 2970,
      "Ġà®µà®±à®£": 2971,
      "Un": 2972,
      "center": 2973,
      "à®ªà®°à®ļ": 2974,
      "à®¤à®ķà®Ł": 2975,
      "int": 2976,
      "à®±à®£": 2977,
      "à®ªà®Łà®²à®®": 2978,
      "Ġà®ķà®²à®©": 2979,
      "1933": 2980,
      "à®ķà®Łà®±": 2981,
      "Ġ09": 2982,
      "ternational": 2983,
      "Ġà®īà®©à®ķ": 2984,
      "à®¤à®©à®ª": 2985,
      "à®ľà®²": 2986,
      "se": 2987,
      "Ġà®¤à®Łà®®": 2988,
      "Ġà®ªà®°à®£": 2989,
      "Ġà®®à®¤à®ķ": 2990,
      "erm": 2991,
      "à¯į\")": 2992,
      "Ġà®ķà®ŀ": 2993,
      "Ġà®µà®²à®ª": 2994,
      "Ġà®ĵà®ķ": 2995,
      "à¯Ī/": 2996,
      "à¯ģ.)": 2997,
      "Ġà®ľà®°": 2998,
      "à®µà®ķà®ª": 2999,
      "Ġà®ļà®®à®¯à®ķ": 3000,
      "ission": 3001,
      "à®¤à®µà®ª": 3002,
      "pl": 3003,
      "à®¯à®®à®©à®®": 3004,
      "ount": 3005,
      "EC": 3006,
      "à®µà®°à®ļ": 3007,
      "hil": 3008,
      "Ġà®µà®°à®¤à®°": 3009,
      "Ġà®®à®²à®ª": 3010,
      "Ġ105": 3011,
      "Ġà®Ĭà®Łà®ķà®®": 3012,
      "Ġà®®à®¯à®Ļ": 3013,
      "Ġ1911": 3014,
      "ĠIII": 3015,
      "Ġà®ļà®°à®ļ": 3016,
      "Ñģ": 3017,
      "Ġ08": 3018,
      "à®ķà®°à®Ļ": 3019,
      "Ġà®Ĩà®²à®¯à®Ļ": 3020,
      "ican": 3021,
      "ref": 3022,
      "Ð½": 3023,
      "Ġà®ļà®°à®¤": 3024,
      "Ġà®Ĭà®Łà®ķ": 3025,
      "Ġà®īà®±à®Ļ": 3026,
      "ung": 3027,
      "SI": 3028,
      "Â²": 3029,
      "à®®à®µà®°": 3030,
      "Ġ1913": 3031,
      "out": 3032,
      "à¯ĪâĢĻ": 3033,
      "ual": 3034,
      "Ġ1916": 3035,
      "Ġ102": 3036,
      "ward": 3037,
      "TP": 3038,
      "eth": 3039,
      "Ġas": 3040,
      "à¤¤": 3041,
      "à®µà®ļà®¤": 3042,
      "Ġà®ªà®Łà®°": 3043,
      "ĠAd": 3044,
      "ĠIP": 3045,
      "à®¿).": 3046,
      "à®ªà®´à®©": 3047,
      "Ġà®®à®±à®¨": 3048,
      "ĠMan": 3049,
      "à®ľà®¤": 3050,
      "900": 3051,
      "SC": 3052,
      "à®¤à®°à®ķ": 3053,
      "Ġà®Īà®µ": 3054,
      "own": 3055,
      "Ġà®Ĳà®¸": 3056,
      "Ġà®ļà®°à®µ": 3057,
      "Ġà®ĵà®Ļ": 3058,
      "Ġed": 3059,
      "à®ªà®®à®£": 3060,
      "ĠPl": 3061,
      "Ġà®¨à®Łà®©à®ķ": 3062,
      "IV": 3063,
      "Ġac": 3064,
      "à¯į%": 3065,
      "Ġ(,": 3066,
      "à®ªà®°à®µà®²": 3067,
      "1938": 3068,
      "AD": 3069,
      "220": 3070,
      "ĠAs": 3071,
      "ution": 3072,
      "à®µà®ķà®°": 3073,
      "à®¯à®²à®Ł": 3074,
      "ert": 3075,
      "EE": 3076,
      "1934": 3077,
      "ited": 3078,
      "1935": 3079,
      "anth": 3080,
      "à®¤à®®à®²": 3081,
      "à®ļà®®à®¯à®¤": 3082,
      "Ġà®ªà®´à®¨": 3083,
      "ĠAc": 3084,
      "Ġ103": 3085,
      "Î¿": 3086,
      "à®µà®¤à®®": 3087,
      "à®īà®ķ": 3088,
      "eral": 3089,
      "ford": 3090,
      "à®©à®ķà®®": 3091,
      "à®ħà®ķà®®": 3092,
      "1931": 3093,
      "à®İà®³": 3094,
      "Ġà®Ĳà®İà®¸": 3095,
      "Ġà®ĥà®µ": 3096,
      "à®ĩà®°à®µ": 3097,
      "Ġ1907": 3098,
      "à®¿.,": 3099,
      "Ġà®Īà®ª": 3100,
      "ĠPubl": 3101,
      "Ġwith": 3102,
      "à¸": 3103,
      "Ġà®īà®°à®®": 3104,
      "Ġà®²à®Ļ": 3105,
      "Ġà®µà®°à®¤": 3106,
      "de": 3107,
      "Ø±": 3108,
      "Ġà®ħà®®à®°à®©": 3109,
      "à®Ĳà®ª": 3110,
      "</": 3111,
      "à®ļà®®à®©": 3112,
      "Ġà®Ĩà®²à®®": 3113,
      "1918": 3114,
      "ĠAss": 3115,
      "à®¤à®ķà®ķ": 3116,
      "Ġà®ªà®¯à®®": 3117,
      "Ġà®¨à®¯": 3118,
      "reat": 3119,
      "ute": 3120,
      "ÑĢ": 3121,
      "à®µà®²à®ķà®Ļ": 3122,
      "Ġà®ıà®ļ": 3123,
      "2024": 3124,
      "iction": 3125,
      "ÙĨ": 3126,
      "MP": 3127,
      "à®Łà®Łà®¤": 3128,
      "Ġ>": 3129,
      "ĠCO": 3130,
      "sc": 3131,
      "ĠÏ": 3132,
      "à®³à®¸": 3133,
      "Ġà®µà®µ": 3134,
      "Ġà®²à®²": 3135,
      "Ġ1905": 3136,
      "ose": 3137,
      "Ġà®ļà®¯à®©": 3138,
      "à®ĵà®ļ": 3139,
      "uv": 3140,
      "Ġà®ħà®µà®®": 3141,
      "1929": 3142,
      "à®°à®°à®ļà®©": 3143,
      "ink": 3144,
      "125": 3145,
      "à®´à®ķà®°": 3146,
      "ĠComm": 3147,
      "110": 3148,
      "OH": 3149,
      "à®ļà®µà®®": 3150,
      "1900": 3151,
      "ĠAmer": 3152,
      "ES": 3153,
      "Ge": 3154,
      "Ġà®ªà®±à®ª": 3155,
      "Ġà®Ĵà®£": 3156,
      "Ġà®Īà®©": 3157,
      "\")": 3158,
      "à®¨à®²à®®": 3159,
      "à¯ģ+": 3160,
      "Ġ104": 3161,
      "ĠPopulation": 3162,
      "aff": 3163,
      "Ġà®®à®ľ": 3164,
      "Ġà®ĵà®¤": 3165,
      "%-": 3166,
      "En": 3167,
      "à®£à®¯à®¤": 3168,
      "Ġà®¨à®µà®ķ": 3169,
      "ril": 3170,
      "ors": 3171,
      "mp": 3172,
      "à®¨à®ļ": 3173,
      "ere": 3174,
      "à®ħà®µà®³": 3175,
      "à®ļà®®à®®": 3176,
      "Ġà®ħà®ķà®°à®®": 3177,
      "Ġà®²à®®": 3178,
      "à¯į',": 3179,
      "à®ļà®¯à®©": 3180,
      "Ġ109": 3181,
      "Ġex": 3182,
      "à®ħà®¸": 3183,
      "à®ķà®Łà®¨": 3184,
      "à®īà®²à®ķà®®": 3185,
      "Ġ115": 3186,
      "à®®à®Łà®Ļ": 3187,
      "Ġà®ªà®¤à®ª": 3188,
      "à®¨à®ķà®°à®Ļ": 3189,
      "ree": 3190,
      "Ġcom": 3191,
      "à¯ģ!": 3192,
      "Ġà®¤à®°à®Ļ": 3193,
      "ĠBl": 3194,
      "ound": 3195,
      "Ġà®ķà®£à®µ": 3196,
      "Ġà®Ĳà®¯à®ª": 3197,
      "Ġà®ļà®®à®£à®°": 3198,
      "à®°à®ªà®¨": 3199,
      "Ġà®ĩà®©à®µ": 3200,
      "DF": 3201,
      "Ġà®ħà®³à®ª": 3202,
      "à®ĵà®µ": 3203,
      "way": 3204,
      "Ġ{": 3205,
      "Ġ350": 3206,
      "ina": 3207,
      "ĠRes": 3208,
      "à®Łà®£à®¤": 3209,
      "à®ĩà®²à®¤": 3210,
      "ĠRe": 3211,
      "con": 3212,
      "lon": 3213,
      "Ġà®ķà®©à®®": 3214,
      "à®ħà®µà®°à®¤": 3215,
      "à®¯à®µà®³": 3216,
      "Ġà®ªà®µà®°": 3217,
      "Ġà®Īà®´à®ª": 3218,
      "ax": 3219,
      "iew": 3220,
      "à®ķà®°à®£": 3221,
      "Ġ1915": 3222,
      "able": 3223,
      "IN": 3224,
      "MS": 3225,
      "Ġà®µà®©à®¤": 3226,
      "Ġ1906": 3227,
      "à®¹à®³": 3228,
      "Ġà®ħà®ķà®£": 3229,
      "Ġan": 3230,
      "à®ļà®ŀ": 3231,
      "Ġà®ĩà®°à®Ļ": 3232,
      "à®µà®²à®ª": 3233,
      "ency": 3234,
      "co": 3235,
      "Ġà®ķà®Łà®ª": 3236,
      "ML": 3237,
      "à®¤à®²à®©": 3238,
      "Ġà®¯à®¤": 3239,
      "Ġà®ħà®±à®®": 3240,
      "Ġ1898": 3241,
      "ĠEncyclop": 3242,
      "line": 3243,
      "ym": 3244,
      "Ġà®Ĩà®·": 3245,
      "Ġà®°à®¹": 3246,
      "eter": 3247,
      "Pro": 3248,
      "à¯įâĢĵ": 3249,
      "à®µà®ļà®¨": 3250,
      "1914": 3251,
      "1928": 3252,
      "ĠCo": 3253,
      "MD": 3254,
      "à®ļà®°à®¸": 3255,
      "orn": 3256,
      "Ġcon": 3257,
      "ii": 3258,
      "Ġ1896": 3259,
      "ĠCon": 3260,
      "eld": 3261,
      "une": 3262,
      "Ġà®®à®ķà®°à®¨": 3263,
      "Ġà®ıà®ľ": 3264,
      "Ġà®®à®£à®ķ": 3265,
      "à®µà®´à®Ļ": 3266,
      "ÙĬ": 3267,
      "à®°à®·": 3268,
      "à®¸à®°": 3269,
      "Ġ1901": 3270,
      "ement": 3271,
      "fl": 3272,
      "à®¤à®²à®°": 3273,
      "à®¯à®¤à®°": 3274,
      "à¯į.(": 3275,
      "Ġà®Łà®¤": 3276,
      "led": 3277,
      "ĠNational": 3278,
      "à¤¨": 3279,
      "rav": 3280,
      "à®ĥà®ļ": 3281,
      "ID": 3282,
      "te": 3283,
      "ull": 3284,
      "Ġ%)": 3285,
      "à®¯à®®à®±": 3286,
      "1924": 3287,
      "Ġà®Ĳà®¤": 3288,
      "Ġà®Īà®±": 3289,
      "ĠSch": 3290,
      "ions": 3291,
      "à¤®": 3292,
      "à®ªà®²à®¤": 3293,
      "à®®à®Łà®®": 3294,
      "à®¤à®°à®ļ": 3295,
      "à®¯à®¨à®²": 3296,
      "à®ªà®µà®³": 3297,
      "ĠTim": 3298,
      "112": 3299,
      "PA": 3300,
      "à®®à®£à®ª": 3301,
      "ĠDec": 3302,
      "CD": 3303,
      "Ġà¯": 3304,
      "à®Ĳà®¯": 3305,
      "ise": 3306,
      "illiam": 3307,
      "MA": 3308,
      "]]": 3309,
      "ier": 3310,
      "Ġà®ķà®³à®ª": 3311,
      "Ġà®Ĳà®©": 3312,
      "anc": 3313,
      "à®¾),": 3314,
      "à®¤à®©à®ķ": 3315,
      "à®ªà®¤à®ķ": 3316,
      "Ġ106": 3317,
      "FA": 3318,
      "Ġà®ħà®±à®µ": 3319,
      "à®ļà®®à®ļ": 3320,
      "ĠSci": 3321,
      "ope": 3322,
      "à®ķà®®à®±": 3323,
      "1926": 3324,
      "Ġà®Ĭà®°à®ķ": 3325,
      "uram": 3326,
      "à®Łà®®à®£": 3327,
      "à®µà®©à®ª": 3328,
      "Ġà®Ĳà®Ļ": 3329,
      "ras": 3330,
      "Ġà®Ĩà®³à®ª": 3331,
      "Ġà®Ĩà®°à®ŀ": 3332,
      "uss": 3333,
      "à®Ĭà®Ł": 3334,
      "à®¤à®Łà®¤": 3335,
      "à®Łà®Łà®Ļ": 3336,
      "à®ķà®²à®µ": 3337,
      "TC": 3338,
      "Ġà®Ĩà®²à®Ļ": 3339,
      "1925": 3340,
      "1932": 3341,
      "Ġà®µà®±à®Ł": 3342,
      "Ġ1904": 3343,
      "à®ĵà®ª": 3344,
      "ĠJohn": 3345,
      "Ġà®µà®³à®¤": 3346,
      "à®ķà®®à®£": 3347,
      "ild": 3348,
      "Ġà®Īà®°à®®": 3349,
      "Ġà®Ĩà®ŀ": 3350,
      "Ġà®ķà®£à®Ļ": 3351,
      "à®°à®£à®°": 3352,
      "Ġ107": 3353,
      "Ġ128": 3354,
      "Ġà®īà®£à®°à®ª": 3355,
      "itt": 3356,
      "à®Ĭà®¤": 3357,
      "Ġsp": 3358,
      "atti": 3359,
      "1000": 3360,
      "1922": 3361,
      ")-": 3362,
      "à®¤à®£à®°": 3363,
      "Ġ1903": 3364,
      "emb": 3365,
      "Mar": 3366,
      "air": 3367,
      "à®³à®ªà®Ł": 3368,
      "Ġà®¨à®Łà®®": 3369,
      "Ġ1909": 3370,
      "à®®à®£à®²": 3371,
      "à®Ĳà®ļ": 3372,
      "akk": 3373,
      "tt": 3374,
      "Ġà®µà®Łà®ª": 3375,
      "1917": 3376,
      "à®±à®®à®±": 3377,
      "arn": 3378,
      "210": 3379,
      "à®ļà®µà®°": 3380,
      "Ġà®ħà®¹": 3381,
      "Ġà®Ĵà®®": 3382,
      "à®Łà®°à®ļ": 3383,
      "Ġ3000": 3384,
      "ĠGe": 3385,
      "han": 3386,
      "à®°à®ķà®Ļ": 3387,
      "1927": 3388,
      "ale": 3389,
      "à®Ĵà®´": 3390,
      "à®Łà®µà®Ł": 3391,
      "à®Łà®¤à®®": 3392,
      "à®®à®©à®¤": 3393,
      "à®ľà®¯à®©": 3394,
      "Ġà®Īà®²": 3395,
      "à®īà®£à®°": 3396,
      "2023": 3397,
      "min": 3398,
      "Ġ119": 3399,
      "à®ªà®°à®µ": 3400,
      "à®ħà®ķà®¨": 3401,
      "1919": 3402,
      "ater": 3403,
      "ural": 3404,
      "Ġà®ķà®²à®¤": 3405,
      "Ġà®Ĩà®ªà®°": 3406,
      "du": 3407,
      "eer": 3408,
      "ool": 3409,
      "à®¤à®ķà®ª": 3410,
      "ictionary": 3411,
      "à®±à®ªà®Ł": 3412,
      "ĠRev": 3413,
      "Sp": 3414,
      "à®¤à®¯à®¤": 3415,
      "à®¯à®£à®¤": 3416,
      "Ġà®µà®³à®µ": 3417,
      "Ġà®¹à®ª": 3418,
      "Ġpage": 3419,
      "NO": 3420,
      "Ġet": 3421,
      "1912": 3422,
      "à®İà®¯": 3423,
      "amm": 3424,
      "ĠFl": 3425,
      "108": 3426,
      "SS": 3427,
      "uri": 3428,
      "ys": 3429,
      "Ġ]": 3430,
      "à®¯à®ķà®Ļ": 3431,
      "Ġà®Ĳà®¯à®©": 3432,
      "Ġà®ªà®£à®ª": 3433,
      "ome": 3434,
      "à®³à®ķà®°": 3435,
      "à¯Ĥ-": 3436,
      "Ġà®Ĩà®ķà®ķ": 3437,
      "Ġ127": 3438,
      "uary": 3439,
      "ya": 3440,
      "Ġà®Ĳà®¯à®Ļ": 3441,
      "Ġà®īà®´à®µà®°": 3442,
      "Ġá": 3443,
      "à®ħà®ľ": 3444,
      "à®ħà®®à®°": 3445,
      "1921": 3446,
      "avid": 3447,
      "ower": 3448,
      "ĠIndian": 3449,
      "à®£à®³à®µ": 3450,
      "Ġ360": 3451,
      "ÙĪ": 3452,
      "à®ªà®®à®Ł": 3453,
      "arth": 3454,
      "à®Ĩà®´": 3455,
      "arb": 3456,
      "à®Ĵà®¯": 3457,
      "Ġ126": 3458,
      "ĠYork": 3459,
      "Ġà®ĩà®ŀ": 3460,
      "à®ĩà®³à®Ļ": 3461,
      "à®īà®Łà®©": 3462,
      "Ġ1800": 3463,
      "Ġ113": 3464,
      "Ġ117": 3465,
      "ÑĤ": 3466,
      "à®¤à®Łà®Ļ": 3467,
      "à®¸à®²": 3468,
      "à®ķà®£à®Ļ": 3469,
      "130": 3470,
      "adu": 3471,
      "ix": 3472,
      "Ġà®ªà®ľ": 3473,
      "Ġà®®à®¤à®©": 3474,
      "ĠAb": 3475,
      "ts": 3476,
      "eal": 3477,
      "à®ļà®¯à®°": 3478,
      "Ġà®Ĩà®²à®ª": 3479,
      "Ġà®ªà®°à®ļ": 3480,
      "Ġ1890": 3481,
      "orth": 3482,
      "Ġ112": 3483,
      "ĠLank": 3484,
      "IA": 3485,
      "à®¾âĢĻ": 3486,
      "à®ķà®®à®Ļ": 3487,
      "esh": 3488,
      "ĠIsl": 3489,
      "Ð¾Ð": 3490,
      "à®¤à®®à®°": 3491,
      "à¤µ": 3492,
      "à®®à®©à®®": 3493,
      "à®ļà®°à®£": 3494,
      "angu": 3495,
      "igh": 3496,
      "ius": 3497,
      "Ġà®ªà®¤à®®": 3498,
      "175": 3499,
      "ea": 3500,
      "Ġ1895": 3501,
      "TE": 3502,
      "Ġpl": 3503,
      "à³": 3504,
      "ĠâĢ¢": 3505,
      "Ġ116": 3506,
      "à®¯à®µà®¨": 3507,
      "ĠBook": 3508,
      "Ġà®ĩà®¯à®©": 3509,
      "Ġà®®à®£à®µ": 3510,
      "ular": 3511,
      "ĠJan": 3512,
      "à¯į=": 3513,
      "Ġà®µà®ļà®©à®Ļ": 3514,
      "eri": 3515,
      "à®µà®³à®µà®©": 3516,
      "160": 3517,
      "port": 3518,
      "à®°à®£à®ª": 3519,
      "à®ĥà®µ": 3520,
      "à®¯à®ļà®°": 3521,
      "à®²à®µà®´": 3522,
      "Ġ135": 3523,
      "small": 3524,
      "Ġ1902": 3525,
      "ris": 3526,
      "hem": 3527,
      "Com": 3528,
      "à®¨à®²à®ķ": 3529,
      "1910": 3530,
      "Ġà®ķà®°à®¨": 3531,
      "ĠMay": 3532,
      "pro": 3533,
      "à®ļà®ªà®ķ": 3534,
      "à®²à®®à®©": 3535,
      "à®·à®¯à®Ļ": 3536,
      "%),": 3537,
      "Ġà®ļà®®à®¯à®ļ": 3538,
      "260": 3539,
      "ele": 3540,
      "Ġà®ªà®µà®©": 3541,
      "à®¨à®°à®ļ": 3542,
      "Ġà®Ĩà®´à®¤": 3543,
      "RS": 3544,
      "TA": 3545,
      "Ġà®Ĩà®Łà®²": 3546,
      "à®ĩà®µà®©": 3547,
      "1923": 3548,
      "Ġà®¹à®ķ": 3549,
      "Ġ133": 3550,
      "115": 3551,
      "so": 3552,
      "Ġà®ªà®¹": 3553,
      "0000": 3554,
      "ene": 3555,
      "ese": 3556,
      "ept": 3557,
      "à®¸à®¸": 3558,
      "Ġà®ªà®²à®ª": 3559,
      "ative": 3560,
      "ĠAm": 3561,
      "Ġ154": 3562,
      "Ġâī": 3563,
      "Ġà®¤à®ķà®µ": 3564,
      "à®¯à®°à®¤": 3565,
      "erg": 3566,
      "aram": 3567,
      "280": 3568,
      "ĠAmerican": 3569,
      "à®ªà®©à®®": 3570,
      "à®ķà®¤à®®": 3571,
      "ĠBrit": 3572,
      "Ġ240": 3573,
      "land": 3574,
      "Ġ\\": 3575,
      "ĠSri": 3576,
      "emple": 3577,
      "ÏĤ": 3578,
      "Ġj": 3579,
      "Ġà®ļà®ªà®°": 3580,
      "à®´à®ļ": 3581,
      "Ġ175": 3582,
      "ings": 3583,
      "ode": 3584,
      "aul": 3585,
      "ho": 3586,
      "à®°à®ķà®°": 3587,
      "à®²à®ŀ": 3588,
      "Ġ($": 3589,
      "à®ķà®°à®ļà®°": 3590,
      "à®īà®´": 3591,
      "Ġ124": 3592,
      "à®ıà®ķ": 3593,
      "à®¾.,": 3594,
      "Ġfl": 3595,
      "oph": 3596,
      "à¥ģ": 3597,
      "à®°à®®à®ļ": 3598,
      "Ġ114": 3599,
      "ety": 3600,
      "BS": 3601,
      "Ġ5000": 3602,
      "Ġ144": 3603,
      "adi": 3604,
      "ific": 3605,
      "TV": 3606,
      "à®ªà®ķà®°": 3607,
      "Ġà®¹à®²": 3608,
      "126": 3609,
      "oly": 3610,
      "ĠJul": 3611,
      "eylon": 3612,
      "XX": 3613,
      "Ġã": 3614,
      "à®£à®ķà®®": 3615,
      "à®ķà®°à®¨": 3616,
      "à®¤à®©à®µ": 3617,
      "Ġà®ħà®ķà®¸": 3618,
      "Ġ1899": 3619,
      "Ġ145": 3620,
      "à¤ķ": 3621,
      "Ġà®īà®´à®µ": 3622,
      "à®°à®ļà®®": 3623,
      "001": 3624,
      "Ġà®ªà®°à®ªà®°à®ª": 3625,
      "ery": 3626,
      "ĠGu": 3627,
      "nal": 3628,
      "Ġà®ıà®²": 3629,
      "1916": 3630,
      "à®£à®µà®©": 3631,
      "ĠPart": 3632,
      "à¯Ģ.)": 3633,
      "Ġ[[": 3634,
      "earch": 3635,
      "Ġ111": 3636,
      "ake": 3637,
      "----": 3638,
      "320": 3639,
      "TR": 3640,
      "à®¤à®ķà®©": 3641,
      "à¯į.[": 3642,
      "à¯ģ.,": 3643,
      "1906": 3644,
      "irst": 3645,
      "Ġ1892": 3646,
      "rim": 3647,
      "ĠNov": 3648,
      "ource": 3649,
      "àµį": 3650,
      "AL": 3651,
      "à®µà®©à®ķ": 3652,
      "Ġà®µà®³à®°à®ķ": 3653,
      "its": 3654,
      "ugust": 3655,
      "Ðº": 3656,
      "à®£à®µà®¤": 3657,
      "Ġà®Īà®ļà®©": 3658,
      "Ġà®ªà®¯à®¨": 3659,
      "Ġà®ªà®´à®¤": 3660,
      "Ġà®Ĩà®²à®¯": 3661,
      "ages": 3662,
      "Ġà®¨à®Łà®©à®¤": 3663,
      "113": 3664,
      "Hz": 3665,
      "à®¯à®´": 3666,
      "Ġ1886": 3667,
      "Ġ220": 3668,
      "Ġ210": 3669,
      "ume": 3670,
      "Ġ1880": 3671,
      "ĠDictionary": 3672,
      "OR": 3673,
      "à®µà®©à®µà®±": 3674,
      "Ġà®ķà®°à®Ļ": 3675,
      "à®±à®®à®³": 3676,
      "ĠIV": 3677,
      "à®ĩà®³à®¨": 3678,
      "span": 3679,
      "225": 3680,
      "à®°à®¤à®ª": 3681,
      "Ġà®ªà®ķà®Ł": 3682,
      "Ġ1891": 3683,
      "à®ªà®²à®µ": 3684,
      "à®ĥà®±": 3685,
      "echn": 3686,
      "à®¨à®³": 3687,
      "à¯ĩ'": 3688,
      "Ġ1857": 3689,
      "ald": 3690,
      "ĠSc": 3691,
      "Ġà®Ķà®µ": 3692,
      "ĠComp": 3693,
      "Am": 3694,
      "ces": 3695,
      "à®®à®Łà®²": 3696,
      "à¯ģ...": 3697,
      "1911": 3698,
      "à®°à®ķà®Łà®©": 3699,
      "ĠMus": 3700,
      "ĠInternational": 3701,
      "xford": 3702,
      "à±": 3703,
      "à®Łà®µà®±": 3704,
      "Ġà®®à®£à®ª": 3705,
      "Ġà®Ĩà®Łà®ª": 3706,
      "Ġ1897": 3707,
      "omb": 3708,
      "Ġà®īà®ªà®ķà®°à®£à®Ļ": 3709,
      "ography": 3710,
      "Ġle": 3711,
      "à®±à®ŀ": 3712,
      "Ġà®®à®¤à®ª": 3713,
      "1901": 3714,
      "Ġà®ķà®°à®£": 3715,
      "ĠDev": 3716,
      "116": 3717,
      "OS": 3718,
      "TN": 3719,
      "ij": 3720,
      "à®¯à®®à®©": 3721,
      "à®īà®¤à®µ": 3722,
      "urn": 3723,
      "à®ĵà®¯": 3724,
      "reen": 3725,
      "Ø§ÙĦ": 3726,
      "Ġi": 3727,
      "à®ķà®ľ": 3728,
      "Ġà®ļà®¤à®®": 3729,
      "Ġà®Ĳà®µà®°": 3730,
      "Ġ,,": 3731,
      "Ïģ": 3732,
      "à®Łà®¯à®¤": 3733,
      "1913": 3734,
      "à®ļà®®à®Ł": 3735,
      "à®µà®ķà®ļ": 3736,
      "à®Ĵà®ķ": 3737,
      "Ġ132": 3738,
      "140": 3739,
      "ĠWW": 3740,
      "à®¨à®Ļ": 3741,
      "à®°à®®à®Ł": 3742,
      "à®¤à®°à®ļà®©": 3743,
      "Ġà®Īà®¤": 3744,
      "ĠPar": 3745,
      "ĠAB": 3746,
      "Ġ170": 3747,
      "Ġà®īà®¤à®¯": 3748,
      "ĠRo": 3749,
      "à¯ģ\",": 3750,
      "Br": 3751,
      "ÙĲ": 3752,
      "à®²à®¤à®©à®®": 3753,
      "1908": 3754,
      "orge": 3755,
      "ĠRep": 3756,
      "à¥Ģ": 3757,
      "ridge": 3758,
      "118": 3759,
      "ject": 3760,
      "à®¿!": 3761,
      "à®¯à®²à®ķà®®": 3762,
      "à®¤à®®à®¤": 3763,
      "Ġ121": 3764,
      ")(": 3765,
      "ll": 3766,
      "à®©à®¯": 3767,
      "à®ļà®¯à®Ļ": 3768,
      "Ġà®īà®µà®°": 3769,
      "Ġà®ªà®¯à®¸": 3770,
      "ature": 3771,
      "Ġà®µà®²à®ļ": 3772,
      "ĠMart": 3773,
      "rans": 3774,
      "ĠColle": 3775,
      "117": 3776,
      "à®®à®¤à®©": 3777,
      "Ġà®ħà®°à®ļà®®": 3778,
      "Ġà®Īà®®": 3779,
      "Ġ1882": 3780,
      "ars": 3781,
      "alam": 3782,
      "Ġ122": 3783,
      "ĠNot": 3784,
      "à¯Ģ.,": 3785,
      "Ġà®ªà®²à®¤à®°": 3786,
      "Ġå": 3787,
      "à®ķà®³à®±": 3788,
      "à®īà®Ļ": 3789,
      "glish": 3790,
      "à®°à®ķà®ļ": 3791,
      "Ġà®µà®Łà®ķà®°": 3792,
      "ript": 3793,
      "Ġ158": 3794,
      "à®ªà®ķà®Ļ": 3795,
      "Ġ1894": 3796,
      "Ġ129": 3797,
      "Ġà®·à®°": 3798,
      "à®īà®²à®ķà®³": 3799,
      "à®īà®²à®ķà®¤": 3800,
      "Ġà®ĩà®¯à®°": 3801,
      "Ġà®Łà®¯": 3802,
      "104": 3803,
      "à®°à®ªà®²à®®à®Ł": 3804,
      "SO": 3805,
      "à®ľà®µ": 3806,
      "à®ªà®°à®¨": 3807,
      "1905": 3808,
      "Ġ1889": 3809,
      "Ġ155": 3810,
      "AA": 3811,
      "ield": 3812,
      "Ġà®ħà®¤à®°": 3813,
      "Ġà®ĵà®©": 3814,
      "Ġà®¹à®Ł": 3815,
      "à®°à®µà®Ļ": 3816,
      "102": 3817,
      "à®Īà®ļ": 3818,
      "ĠOr": 3819,
      "ĠArch": 3820,
      "à®¾;": 3821,
      "à®²à®´à®ķà®°": 3822,
      "à®¯à®°à®ļà®°": 3823,
      "à®ªà®°à®©": 3824,
      "190": 3825,
      "Ġà®Īà®°à®²": 3826,
      "à®¤à®µà®²": 3827,
      "Ġà®Ĩà®©à®µ": 3828,
      "ĠPer": 3829,
      "indu": 3830,
      "114": 3831,
      "à®©à®³": 3832,
      "Ġà®µà®ļà®©": 3833,
      "à®¯à®©à®µà®±": 3834,
      "à®İà®ĥ": 3835,
      "Ġà®®à®¤à®ļ": 3836,
      "atic": 3837,
      "ĠAir": 3838,
      "Ġ123": 3839,
      "à¤²": 3840,
      "ĠHar": 3841,
      "à¯ģ\".": 3842,
      "Ġà®¨à®Ļ": 3843,
      "à®ªà®ķà®µ": 3844,
      "ĠCeylon": 3845,
      "ĠMed": 3846,
      "ĠNo": 3847,
      "affna": 3848,
      "à®©à®ķà®°": 3849,
      "Ġ225": 3850,
      "Ġ450": 3851,
      "Ġà®¹à®ļ": 3852,
      "era": 3853,
      "ĠDe": 3854,
      "ĠInstit": 3855,
      "Ad": 3856,
      "Bl": 3857,
      "form": 3858,
      "ole": 3859,
      "Ġà®ļà®ªà®¤à®®": 3860,
      "à®¤à®©à®ļ": 3861,
      "1909": 3862,
      "à®ıà®ļ": 3863,
      "Ġ147": 3864,
      "Ġ137": 3865,
      "ife": 3866,
      "à®¨à®°à®®": 3867,
      "Ġ1870": 3868,
      "Ġ157": 3869,
      "à®ļà®¨à®²": 3870,
      "ĠRam": 3871,
      "ĠâĤ": 3872,
      "overn": 3873,
      "AH": 3874,
      "ren": 3875,
      "Î¹": 3876,
      "à®¨à®¯": 3877,
      "à®±à®¤à®©": 3878,
      "Ġà®®à®±à®ķ": 3879,
      "à®ľà®¯à®®": 3880,
      "ane": 3881,
      "CP": 3882,
      "Ġà®ļà®ķà®²": 3883,
      "à®´à®ķà®ķ": 3884,
      "à¯į,\"": 3885,
      "Ġà®ķà®²à®µà®°à®®": 3886,
      "à®±à®©à®µ": 3887,
      "Ġà®¹à®Ļ": 3888,
      "à®ªà®©à®µà®±": 3889,
      "Ġà®Ķà®°à®Ļ": 3890,
      "ĠGen": 3891,
      "ĠMarch": 3892,
      "IL": 3893,
      "pp": 3894,
      "ingh": 3895,
      "alli": 3896,
      "rig": 3897,
      "ĠMad": 3898,
      "à®¤à®±à®²": 3899,
      "à®ļà®Łà®Ļ": 3900,
      "à®°à®®à®ª": 3901,
      "à®µà®®à®±": 3902,
      "Ġ1888": 3903,
      "à®®à®£à®ķ": 3904,
      "Ġà®Ĩà®µà®£à®¤": 3905,
      "à®ıà®Ł": 3906,
      "Ġà®·à®Ł": 3907,
      "111": 3908,
      "270": 3909,
      "Ġcl": 3910,
      "à®ľà®¯à®¨à®ķà®°à®ª": 3911,
      "order": 3912,
      "ouse": 3913,
      "BM": 3914,
      "VD": 3915,
      "af": 3916,
      "à®ĩà®´": 3917,
      "orp": 3918,
      "ĠLe": 3919,
      "âĢ¦": 3920,
      "Ġà®ªà®°à®¸": 3921,
      "inn": 3922,
      "arl": 3923,
      "aran": 3924,
      "ext": 3925,
      "ĠLanka": 3926,
      "ke": 3927,
      "à®ªà®°à®µà®³": 3928,
      "105": 3929,
      "ĠOn": 3930,
      "NT": 3931,
      "Ġ1200": 3932,
      "à®ķà®£à®ªà®¤": 3933,
      "ali": 3934,
      "ĠPol": 3935,
      "ĠNa": 3936,
      "que": 3937,
      "cessed": 3938,
      "Ġà®®à®¯à®®": 3939,
      "Ġà®¨à®²à®µ": 3940,
      "à®ķà®¤à®°": 3941,
      "à®ħà®°à®Ļ": 3942,
      "1907": 3943,
      "ĠPublish": 3944,
      "ĠJuly": 3945,
      "net": 3946,
      "à®³à®±": 3947,
      "Ġ1885": 3948,
      "ĠCH": 3949,
      "Ġ159": 3950,
      "à¯į]]": 3951,
      "Â·": 3952,
      "1904": 3953,
      "à®İà®µ": 3954,
      "à®ļà®®à®¯": 3955,
      "1898": 3956,
      "ĠAg": 3957,
      "Ġà®ĥà®ªà®°": 3958,
      "à®²à®µà®ķ": 3959,
      "Ġà®¤à®ļà®®": 3960,
      "à®¹à®²": 3961,
      "170": 3962,
      "128": 3963,
      "istry": 3964,
      "ave": 3965,
      "450": 3966,
      "à®¨à®£": 3967,
      "à®£à®ķà®¤": 3968,
      "Ġà®¯à®ļ": 3969,
      "à®ħà®¯à®©": 3970,
      "à®°à®¤à®ķ": 3971,
      "Ġ1893": 3972,
      "Ġ1887": 3973,
      "Ġà®ļà®°à®µà®£à®©": 3974,
      "Ġ148": 3975,
      "oss": 3976,
      "rick": 3977,
      "SA": 3978,
      "ira": 3979,
      "ta": 3980,
      "âĨĴ": 3981,
      "à®Łà®³à®µ": 3982,
      "à®ªà®ķà®ª": 3983,
      "à®ļà®µà®©": 3984,
      "1915": 3985,
      "à®ķà®´à®ķà®ª": 3986,
      "ĠNT": 3987,
      "ĠFran": 3988,
      "Ġà®µà®°à®µà®´": 3989,
      "Ġà®ļà®°à®³": 3990,
      "1896": 3991,
      "103": 3992,
      "à¯į''": 3993,
      "Ġà®ķà®µà®°à®ª": 3994,
      "ĠStud": 3995,
      "NH": 3996,
      "RI": 3997,
      "oog": 3998,
      "Ġar": 3999,
      "Ġ230": 4000,
      "Ġ1600": 4001,
      "SH": 4002,
      "yp": 4003,
      "à®Ķ": 4004,
      "à®´à®ķà®ª": 4005,
      "Ġà®ķà®µà®ļà®®": 4006,
      "roup": 4007,
      "ED": 4008,
      "xx": 4009,
      "à®ķà®°à®ķ": 4010,
      "à®¤à®®à®±": 4011,
      "à®Łà®²à®ª": 4012,
      "Ġ1881": 4013,
      "Ġà®®à®£à®±": 4014,
      "121": 4015,
      "ĠDay": 4016,
      "erson": 4017,
      "ck": 4018,
      "Ã¡": 4019,
      "à¯ģ.[": 4020,
      "à®©à®°à®®": 4021,
      "Ġà®¤à®²à®µà®°à®²": 4022,
      "à®ıà®¤": 4023,
      "235": 4024,
      "rop": 4025,
      "Ġ192": 4026,
      "à®¹à®Ł": 4027,
      "Ġ165": 4028,
      "Ġ138": 4029,
      "Ġà®ħà®³à®¨": 4030,
      "ury": 4031,
      "à¤¯": 4032,
      "à¯į>": 4033,
      "Ġà®¤à®µà®³": 4034,
      "Ġà®ħà®ļà®°": 4035,
      "Ġà®ªà®Łà®µ": 4036,
      "à®·à®£": 4037,
      "ĠCent": 4038,
      "Ġ141": 4039,
      "Ġ136": 4040,
      "CM": 4041,
      "à®ķà®®à®³": 4042,
      "ĠSouth": 4043,
      "ital": 4044,
      "cient": 4045,
      "ham": 4046,
      "Ø¯": 4047,
      "Ġà®ļà®¹": 4048,
      "à®¸à®®": 4049,
      "Ġà®ªà®²à®ªà®Ł": 4050,
      "any": 4051,
      "127": 4052,
      "à¤¸": 4053,
      "New": 4054,
      "à®°à®¤à®©": 4055,
      "à®£à®ļà®ª": 4056,
      "à¯į):": 4057,
      "Ġà®Īà®¤à®°": 4058,
      "Ġ131": 4059,
      "ĠJaffna": 4060,
      "okia": 4061,
      "ĠDecember": 4062,
      "uch": 4063,
      "yd": 4064,
      "Ġz": 4065,
      "à®®à®ķà®®": 4066,
      "à®²à®ļà®¨": 4067,
      "à®ħà®µà®±": 4068,
      "ini": 4069,
      "udd": 4070,
      "ean": 4071,
      "fer": 4072,
      "à®ķà®¹": 4073,
      "à®µà®©à®Ł": 4074,
      "124": 4075,
      "à¤¦": 4076,
      "222": 4077,
      "ournal": 4078,
      "hys": 4079,
      "ĠQu": 4080,
      "to": 4081,
      "Î½": 4082,
      "à¯ĭ?": 4083,
      "à®Łà®°à®²": 4084,
      "Ġà®ĩà®Łà®®à®³": 4085,
      "Ġ156": 4086,
      "Ġà®¨à®®à®ļ": 4087,
      "ĠDC": 4088,
      "Ġà®ªà®°à®¤à®¨": 4089,
      "oogle": 4090,
      "230": 4091,
      "BN": 4092,
      "Tamil": 4093,
      "ê¢": 4094,
      "à®ķà®Łà®ļ": 4095,
      "Ġ1860": 4096,
      "icro": 4097,
      "Ġà®īà®¤à®¯à®®": 4098,
      "à¯į);": 4099,
      "ĠSoci": 4100,
      "ĠAugust": 4101,
      "Ġ142": 4102,
      "aya": 4103,
      "ĠEncyclopedia": 4104,
      "DA": 4105,
      "à®¿+": 4106,
      "à®ļà®©à®°": 4107,
      "Ġà®ħà®µà®²": 4108,
      "à®ıà®µ": 4109,
      "à¤Ĥ": 4110,
      "ĠÂ·": 4111,
      "ĠScience": 4112,
      "iri": 4113,
      "mon": 4114,
      "Ġ`": 4115,
      "à®²à®ªà®®": 4116,
      "Ġà®¤à®µà®¤": 4117,
      "à®¨à®Łà®°": 4118,
      "à®ħà®²à®ķ": 4119,
      "Ġ4000": 4120,
      "à®ķà®¨à®²": 4121,
      "Ġsh": 4122,
      "ondon": 4123,
      "LC": 4124,
      "OC": 4125,
      "ret": 4126,
      "à®³à®£": 4127,
      "à®ļà®ķà®ª": 4128,
      "Ġ216": 4129,
      "à®¯à®¤à®³à®¤": 4130,
      "Ġà®ħà®µà®°à®µà®°": 4131,
      "à®£à®®à®Ł": 4132,
      "Ġà®ĵà®¸": 4133,
      "ĠSec": 4134,
      "ĠAnd": 4135,
      "Ġ152": 4136,
      "ĠBi": 4137,
      "upp": 4138,
      "à¥ĩ": 4139,
      "ĠCollege": 4140,
      "As": 4141,
      "Pap": 4142,
      "à®²à®ķà®ª": 4143,
      "Ġà®ķà®°à®®": 4144,
      "als": 4145,
      "icle": 4146,
      "ĠRel": 4147,
      "135": 4148,
      "ĠNews": 4149,
      "ĠJanuary": 4150,
      "Ġà®®à®±à®µà®°": 4151,
      "Ġ153": 4152,
      "à®°à®³à®µ": 4153,
      "Ġà®®à®©à®ķ": 4154,
      "ĠFor": 4155,
      "ĠApril": 4156,
      "Ed": 4157,
      "à®ªà®²à®ª": 4158,
      "Ġ190": 4159,
      "Ġà®ħà®´à®ķà®°": 4160,
      "Ġà®Ĩà®Łà®µà®°": 4161,
      "Ġ1876": 4162,
      "Ġ1861": 4163,
      "Ġ1872": 4164,
      "ĠJune": 4165,
      "ĠNovember": 4166,
      "\">": 4167,
      "Ab": 4168,
      "à®Łà®¯à®ª": 4169,
      "à®ªà®´à®¤": 4170,
      "Ġà®®à®ķà®ª": 4171,
      "010": 4172,
      "Ġà®Ĳà®¯à®®": 4173,
      "Ġà®ĩà®Łà®ļ": 4174,
      "ĠTemple": 4175,
      "isc": 4176,
      "Ġà®µà®ľ": 4177,
      "uman": 4178,
      "Ġ146": 4179,
      "106": 4180,
      "elop": 4181,
      "ulam": 4182,
      "ird": 4183,
      "Con": 4184,
      "Ġ×": 4185,
      "à®°à®ķà®²": 4186,
      "Ġ(;": 4187,
      "à®±à®¤à®±": 4188,
      "Ġà®ıà®²à®¤": 4189,
      "à®Łà®²à®ķ": 4190,
      "Ġ168": 4191,
      "ĠOxford": 4192,
      "Per": 4193,
      "à®¾!": 4194,
      "à®®à®ķà®¤": 4195,
      "Ġà®®à®²à®®": 4196,
      "ilm": 4197,
      "apuram": 4198,
      "AB": 4199,
      "bl": 4200,
      "Î¼": 4201,
      "à®°à®µà®ª": 4202,
      "anj": 4203,
      "Ġà®¹à®¤": 4204,
      "Ġdistrict": 4205,
      "ows": 4206,
      "SM": 4207,
      "tr": 4208,
      "Ġà®īà®®à®°": 4209,
      "Ġà®ıà®ķà®ª": 4210,
      "Ġ166": 4211,
      "122": 4212,
      "ĠRaj": 4213,
      "Ġq": 4214,
      "à®¨à®ŀ": 4215,
      "Ġà®ªà®¤à®Ļ": 4216,
      "Ġà®¤à®²à®ª": 4217,
      "à®ķà®ļà®ª": 4218,
      "ĠFeb": 4219,
      "ein": 4220,
      "à®®à®¤à®¤": 4221,
      "Ġà®ħà®ĥà®ª": 4222,
      "Ġà®ľà®ķà®¤": 4223,
      "Ġà®ĩà®Łà®µ": 4224,
      "Ġ1884": 4225,
      "ĠMah": 4226,
      "Ġ134": 4227,
      "ĠArt": 4228,
      "anguage": 4229,
      "National": 4230,
      "Î»": 4231,
      "Ïĥ": 4232,
      "à®µà®³à®¤": 4233,
      "à®ħà®°à®µ": 4234,
      "Ġà®ķà®©à®ķ": 4235,
      "Ġà®īà®¤à®Ł": 4236,
      "à®µà®ļà®ķ": 4237,
      "ĠHer": 4238,
      "à®ħà®°à®ļà®©": 4239,
      "eed": 4240,
      "oor": 4241,
      "oot": 4242,
      "à®¾âĢĿ": 4243,
      "Ġà®ħà®±à®ª": 4244,
      "Ġà®¯à®Ļ": 4245,
      "à®Ĩà®¯à®°": 4246,
      "à®®à®°à®Ļ": 4247,
      "Ġ1883": 4248,
      "1899": 4249,
      "à®ľà®¯à®¨à®ķà®°": 4250,
      "ffic": 4251,
      "Ġà²": 4252,
      "ichard": 4253,
      "Ã¼": 4254,
      "ÏĢ": 4255,
      "Ġà®¤à®²à®¤": 4256,
      "Ġà®ĩà®Łà®ķ": 4257,
      "Ġà®µà®Łà®ªà®ķ": 4258,
      "Ġ185": 4259,
      "alai": 4260,
      "rib": 4261,
      "ator": 4262,
      "2025": 4263,
      "udi": 4264,
      "ael": 4265,
      "fram": 4266,
      "à®ķà®³à®Ļ": 4267,
      "Ġà®İà®¤à®©": 4268,
      "ets": 4269,
      "à®īà®²à®ķà®ª": 4270,
      "ruary": 4271,
      "ization": 4272,
      "ĠInstitute": 4273,
      "360": 4274,
      "IM": 4275,
      "Sc": 4276,
      "ze": 4277,
      "à§": 4278,
      "àª": 4279,
      "Ġà®µà®¯à®°": 4280,
      "Ġ320": 4281,
      "ura": 4282,
      "ents": 4283,
      "ĠÎ±": 4284,
      "à®°à®µà®²à®°": 4285,
      "Ġ((": 4286,
      "Ġ(),": 4287,
      "Ġà®°à®ļà®²": 4288,
      "Ġà®Łà®®": 4289,
      "à®ħà®¤à®±": 4290,
      "Ġà®Ĭà®©à®®": 4291,
      "Ġà®Ĭà®ļà®²": 4292,
      "à®·à®ª": 4293,
      "Ġ1850": 4294,
      "rish": 4295,
      "ĠOct": 4296,
      "GP": 4297,
      "eop": 4298,
      "à®°à®¯à®©": 4299,
      "Ġà®īà®µ": 4300,
      "Ġà®ĵà®°à®Ļ": 4301,
      "Ġ1865": 4302,
      "arg": 4303,
      "ĠCD": 4304,
      "Ġ139": 4305,
      "els": 4306,
      "Ġà®µà®©à®®": 4307,
      "à®ªà®Łà®ļ": 4308,
      "à®²à®®à®Ļ": 4309,
      "Ġ1858": 4310,
      "Ġ1871": 4311,
      "iter": 4312,
      "à®Īà®Ł": 4313,
      "ime": 4314,
      "ler": 4315,
      "Ð»": 4316,
      "à®ķà®£à®ª": 4317,
      "à®ħà®©à®¨": 4318,
      "à®°à®ķà®Łà®©à®®": 4319,
      "ĠPage": 4320,
      "lex": 4321,
      "129": 4322,
      "gen": 4323,
      "à®²à®ļà®®": 4324,
      "à®¯à®ķà®°à®®": 4325,
      "à¯ģ.(": 4326,
      "ĠPark": 4327,
      "ĠAD": 4328,
      "Ġ167": 4329,
      "rowspan": 4330,
      "à®Łà®©à®µ": 4331,
      "à®İà®±": 4332,
      "Ġ1848": 4333,
      "à®ªà®²à®©": 4334,
      "ĠPhil": 4335,
      "agar": 4336,
      "Ġà°": 4337,
      "ĠVolume": 4338,
      "ĠTimes": 4339,
      "TS": 4340,
      "lo": 4341,
      "ÃŃ": 4342,
      "Ġà´": 4343,
      "Ġ1878": 4344,
      "olution": 4345,
      "ĠÎ¼": 4346,
      "duction": 4347,
      "yle": 4348,
      "Ġ1867": 4349,
      "1895": 4350,
      "Ġà®¤à®Łà®ķà®³": 4351,
      "Ġli": 4352,
      "à®ªà®³à®ª": 4353,
      "à®ļà®¯à®¤": 4354,
      "Ġà®ļà®³": 4355,
      "Ġà®ļà®°à®ª": 4356,
      "Ġ215": 4357,
      "à®ĩà®¯à®Ļ": 4358,
      "Ġ1866": 4359,
      "inal": 4360,
      "à®ĩà®²à®£": 4361,
      "William": 4362,
      "à¯ĩ;": 4363,
      "Ġà®Ĩà®°à®¤": 4364,
      "Ġà®īà®²à®Ļ": 4365,
      "1902": 4366,
      "Ġà®īà®±à®ķ": 4367,
      "Ġà®¹à®¸": 4368,
      "Ġà®īà®²à®ķà®ļ": 4369,
      "à®®à®ķà®¨": 4370,
      "à®ĵà®²": 4371,
      "330": 4372,
      "Pl": 4373,
      "oint": 4374,
      "à®¤à®Łà®µ": 4375,
      "à®¯à®£à®ª": 4376,
      "à®¯à®©à®®": 4377,
      "Ġà®ļà®®à®ª": 4378,
      "Ġà®Īà®¯à®®": 4379,
      "Ġ1869": 4380,
      "à®ĥà®ªà®©": 4381,
      "Ġà®īà®²à®ķà®Ļ": 4382,
      "ĠMission": 4383,
      "165": 4384,
      "136": 4385,
      "Ġsystem": 4386,
      "à®¤à®³à®ªà®¤": 4387,
      "à®ľà®¯à®ª": 4388,
      "à®·à®¯à®®": 4389,
      "à®ļà®°à®ķ": 4390,
      "à®ķà®©à®ª": 4391,
      "Ġ143": 4392,
      "ĠMc": 4393,
      "107": 4394,
      "ĠHindu": 4395,
      "Ġ270": 4396,
      ".;": 4397,
      "Man": 4398,
      "rand": 4399,
      "à¯¦": 4400,
      "Ġà®ķà®ļà®ķ": 4401,
      "Ġà®¨à®²à®ķ": 4402,
      "à®·à®ªà®®": 4403,
      "à®īà®³à®µ": 4404,
      "ĠMin": 4405,
      "urai": 4406,
      "Ro": 4407,
      "ober": 4408,
      "ĠÃ": 4409,
      "à®ªà®´à®¨": 4410,
      "Ġ222": 4411,
      "à®Ĩà®µà®£": 4412,
      "ĠChem": 4413,
      "Ġ151": 4414,
      "ĠWar": 4415,
      ")\"": 4416,
      "ĠØ§ÙĦ": 4417,
      "Ġà®ªà®¤à®©": 4418,
      "à®ľà®²à®Ł": 4419,
      "Ġ6000": 4420,
      "1897": 4421,
      "ĠTV": 4422,
      "ision": 4423,
      "omas": 4424,
      "ĠChrist": 4425,
      "ally": 4426,
      "Ġkm": 4427,
      "Co": 4428,
      "OM": 4429,
      "ÏĦ": 4430,
      "Ġà®¨à®µà®¨": 4431,
      "à®ĩà®©à®ª": 4432,
      "à®µà®®à®´": 4433,
      "Ġ176": 4434,
      "ract": 4435,
      "ĠFebruary": 4436,
      "Ex": 4437,
      "FS": 4438,
      "à®®à®Łà®¤": 4439,
      "à®²à®¤à®©": 4440,
      "à®ļà®ķà®©": 4441,
      "Ġà®ħà®°à®®": 4442,
      "Ġà®īà®¸": 4443,
      "002": 4444,
      "Ġ149": 4445,
      "133": 4446,
      "lad": 4447,
      "oon": 4448,
      "Ġun": 4449,
      "à®¯à®£à®ķ": 4450,
      "à®ķà®³à®ķ": 4451,
      "Ġà®Īà®¯": 4452,
      "Ġà®ħà®´à®ķà®ª": 4453,
      "ĠPg": 4454,
      "ĠAct": 4455,
      "166": 4456,
      "137": 4457,
      "ĠSociety": 4458,
      "Ġro": 4459,
      "Ġà®µà®Łà®¤": 4460,
      "à®ĩà®¯à®¨": 4461,
      "ĠSystem": 4462,
      "ĠSept": 4463,
      "Ġ173": 4464,
      "255": 4465,
      "ĠLife": 4466,
      "Ġà®īà®ªà®ķà®°à®£": 4467,
      "site": 4468,
      "Ġapp": 4469,
      "à®¿?": 4470,
      "à®ļà®ªà®Ł": 4471,
      "à¯ĭ:": 4472,
      "Ġ(-": 4473,
      "Ġ1873": 4474,
      "arles": 4475,
      "ĠPDF": 4476,
      "oman": 4477,
      "rew": 4478,
      "Ġà®¨à®Łà®©à®Ļ": 4479,
      "ichael": 4480,
      "à¯į||": 4481,
      "Ġ!": 4482,
      "Ġà®İà®Łà®ª": 4483,
      "à®¯à®°à®ļà®©": 4484,
      "à®ļà®®à®¨": 4485,
      "à®īà®µà®®": 4486,
      "Ġ750": 4487,
      "umber": 4488,
      "riv": 4489,
      "1889": 4490,
      "Ġà®Ĩà®µà®£à®ķ": 4491,
      "ama": 4492,
      "Ġ174": 4493,
      "ĠInc": 4494,
      "à®°à®ªà®°à®£": 4495,
      "Ġ('": 4496,
      "à®¤à®²à®ª": 4497,
      "à®ªà®¤à®¤": 4498,
      "à®¯à®²à®Ļ": 4499,
      "Ġ205": 4500,
      "Ġ178": 4501,
      "123": 4502,
      "Ġà®ªà®°à®®à®ļ": 4503,
      "**": 4504,
      "World": 4505,
      "press": 4506,
      "à¯įâĢĶ": 4507,
      "à®ªà®ªà®Ł": 4508,
      "à®²à®¯à®©": 4509,
      "à®²à®°à®ļ": 4510,
      "Ġà®¤à®³à®ª": 4511,
      "à®£à®Ł": 4512,
      "Ġà®ħà®±à®¤": 4513,
      "Ġà®ħà®©à®¤": 4514,
      "à®©à®°à®ļ": 4515,
      "Ġ-/-": 4516,
      "1903": 4517,
      "Ġà®ľà®Ł": 4518,
      "ena": 4519,
      "Ġà®ļà®¤à®ķà®®": 4520,
      "144": 4521,
      "CR": 4522,
      "FT": 4523,
      "GC": 4524,
      "Ġà®¤à®¯à®Ļ": 4525,
      "à¯Ĩ)": 4526,
      "Ġà®¨à®ķà®Ļ": 4527,
      "Ġ370": 4528,
      "Ġà®ĩà®Łà®®à®ķà®²": 4529,
      "urg": 4530,
      "overnment": 4531,
      "BB": 4532,
      "gram": 4533,
      "Ġ~": 4534,
      "à¯ĩ:": 4535,
      "Ġà®¨à®µà®°": 4536,
      "Ġà®īà®³à®ª": 4537,
      "à®ķà®´à®ª": 4538,
      "à®ķà®´à®²": 4539,
      "1893": 4540,
      "urch": 4541,
      "à®¯à®£à®ļ": 4542,
      "ĠÎ²": 4543,
      "ON": 4544,
      "SD": 4545,
      "à®¯à®²à®ķà®¤": 4546,
      "à®īà®Łà®±": 4547,
      "1888": 4548,
      "ĠCamb": 4549,
      "Papa": 4550,
      "??": 4551,
      "SL": 4552,
      "col": 4553,
      "war": 4554,
      "à®´à®Ł": 4555,
      "à®Ĩà®²à®Ļ": 4556,
      "Ġà®ķà®°à®ķ": 4557,
      "Ġà®µà®²à®¯à®®": 4558,
      "Ġà®ķà®©à®ļà®¤": 4559,
      "ĠServ": 4560,
      "109": 4561,
      "ĠTechn": 4562,
      "221": 4563,
      "Ġweb": 4564,
      "ĠAll": 4565,
      "oid": 4566,
      "Ġà®ħà®²à®®": 4567,
      "Ġà®ľà®Ļ": 4568,
      "Ġà®ķà®°à®µ": 4569,
      "Ġ1877": 4570,
      "Ġà®µà®²à®¯à®¤": 4571,
      "Ġ177": 4572,
      "Ġ163": 4573,
      "Ġ164": 4574,
      "let": 4575,
      "ĠBe": 4576,
      "Ġ2500": 4577,
      "CL": 4578,
      "Har": 4579,
      "ky": 4580,
      "Ġ).": 4581,
      "à®µà®ľ": 4582,
      "Ġà®īà®ľ": 4583,
      "à®ªà®°à®°": 4584,
      "Ġ1875": 4585,
      "1892": 4586,
      "167": 4587,
      "ĠGl": 4588,
      "rab": 4589,
      "ĠInt": 4590,
      "dom": 4591,
      "ray": 4592,
      "ÙĴ": 4593,
      "Ġà®īà®ªà®°": 4594,
      "Ġà®ªà®Łà®²à®¤": 4595,
      "Ġà®īà®£à®µà®ķà®Ļ": 4596,
      "1870": 4597,
      "ĠCa": 4598,
      "ĠSe": 4599,
      "à®ªà®¯à®©à®°": 4600,
      "Mad": 4601,
      "Ġ224": 4602,
      "Ġà®Ĭà®®": 4603,
      "Ġà®ļà®®à®ªà®ķ": 4604,
      "Ġ172": 4605,
      "ĠBh": 4606,
      "131": 4607,
      "138": 4608,
      "urv": 4609,
      "à®Īà®¸": 4610,
      "Ġbe": 4611,
      "ange": 4612,
      "Ġà®ħà®µà®¤à®°": 4613,
      "DE": 4614,
      "Ph": 4615,
      "à¯ģ]": 4616,
      "à®¤à®¯à®Ļ": 4617,
      "à®®à®ļà®¨": 4618,
      "à¯Ģ-": 4619,
      "à®¯à®°à®®": 4620,
      "Ġà®ķà®²à®ķà®®": 4621,
      "Ġà®īà®°à®Ļ": 4622,
      "aras": 4623,
      "Ġ234": 4624,
      "idd": 4625,
      "Ġab": 4626,
      "ulture": 4627,
      "',": 4628,
      "à®©à®µà®³": 4629,
      "à®¨à®ª": 4630,
      "à®ķà®®à®°": 4631,
      "à®ľà®Ļ": 4632,
      "Ġ1864": 4633,
      "Ġà®ķà®´à®²": 4634,
      "à®Ĳà®¤": 4635,
      "ada": 4636,
      "SN": 4637,
      "lor": 4638,
      "Ġà®µà®¤à®¨": 4639,
      "Ġ640": 4640,
      "Ġà®ĩà®Łà®ŀ": 4641,
      "Ġ1879": 4642,
      "168": 4643,
      "ĠLondon": 4644,
      "Ġ260": 4645,
      "unction": 4646,
      "550": 4647,
      "cent": 4648,
      "à¨": 4649,
      "à®²à®¤à®©à®¤": 4650,
      "Ġà®µà®¸": 4651,
      "à¯Ĩ,": 4652,
      "Ġà®ĩà®°à®ª": 4653,
      "Ġà®°à®®à®£": 4654,
      "à®¯à®¤à®³": 4655,
      "âĢ²": 4656,
      "Ġ1863": 4657,
      "Ġ209": 4658,
      "ĠSm": 4659,
      "à®ıà®İà®²": 4660,
      "à®İà®©à®ķ": 4661,
      "ĠJournal": 4662,
      "iver": 4663,
      "aint": 4664,
      "Indian": 4665,
      "ration": 4666,
      "Ùĩ": 4667,
      "à®ħà®ķà®°": 4668,
      "Ġ189": 4669,
      "Ġ1859": 4670,
      "Ġ202": 4671,
      "Ġ162": 4672,
      "145": 4673,
      "ĠNotes": 4674,
      "%.": 4675,
      ".-": 4676,
      "BA": 4677,
      "EG": 4678,
      "Fran": 4679,
      "PI": 4680,
      "Wh": 4681,
      "ka": 4682,
      "Ø¨": 4683,
      "ÛĮ": 4684,
      "à¯Ī!": 4685,
      "à®ľà®¯à®°": 4686,
      "Ġà®ķà®²à®µà®°à®¤": 4687,
      "1800": 4688,
      "ublic": 4689,
      "And": 4690,
      "lin": 4691,
      "à®©à®µà®²": 4692,
      "à®¯à®ŀ": 4693,
      "à®¨à®¯à®®": 4694,
      "Ġà®Łà®Ļ": 4695,
      "à®ļà®®à®¤": 4696,
      "à®¹à®¤": 4697,
      "à®¹à®¸": 4698,
      "à®Ĵà®ļ": 4699,
      "202": 4700,
      "134": 4701,
      "round": 4702,
      "Ġbl": 4703,
      "ĠUN": 4704,
      "ĠEnglish": 4705,
      "embly": 4706,
      "sy": 4707,
      "Ð²": 4708,
      "à®Ĩà®²à®®": 4709,
      "ony": 4710,
      "1890": 4711,
      "158": 4712,
      "à®¿\",": 4713,
      "ĠResearch": 4714,
      "book": 4715,
      "iff": 4716,
      "Ø³": 4717,
      "Ġen": 4718,
      "Ġpx": 4719,
      "à®®à®ķà®°": 4720,
      "Ġà®¤à®Łà®¤": 4721,
      "à®¨à®Łà®ª": 4722,
      "Ġ212": 4723,
      "à®ĩà®³à®µà®°": 4724,
      "Ġà®ĵà®¨": 4725,
      "Ġà®ªà®°à®¤à®©": 4726,
      "Ġ181": 4727,
      "ating": 4728,
      "Ġ1700": 4729,
      "ĠMHz": 4730,
      "174": 4731,
      "132": 4732,
      "ĠDel": 4733,
      "147": 4734,
      "DP": 4735,
      "IR": 4736,
      "oric": 4737,
      "à®ªà®³à®¤": 4738,
      "à®µà®²à®¨": 4739,
      "à®ªà®©à®Ļ": 4740,
      "Ġ1855": 4741,
      "1880": 4742,
      "ĠPh": 4743,
      "141": 4744,
      "2100": 4745,
      "adem": 4746,
      "ĠWh": 4747,
      "conom": 4748,
      "ĠOctober": 4749,
      "pen": 4750,
      "vent": 4751,
      "Ġà®ķà®©à®°": 4752,
      "Ġà®ĩà®·": 4753,
      "à®¤à®²à®ķ": 4754,
      "à®ļà®°à®ļ": 4755,
      "à®īà®±à®µ": 4756,
      "à®ĩà®²à®Ł": 4757,
      "Ġ161": 4758,
      "ĠMe": 4759,
      "232": 4760,
      "Ġcol": 4761,
      "ological": 4762,
      "ĠÂ£": 4763,
      "Ġà®ľà®µà®ķà®°": 4764,
      "elopment": 4765,
      "eople": 4766,
      "\"|": 4767,
      "EM": 4768,
      "Ne": 4769,
      "Re": 4770,
      "link": 4771,
      "och": 4772,
      "à®ķà®Łà®°": 4773,
      "Ġà®ĩà®ĥà®¤": 4774,
      "Ġà®ªà®²à®¨": 4775,
      "Ġà®ħà®±à®Ļ": 4776,
      "1894": 4777,
      "Ġ169": 4778,
      "Ġà®īà®£à®µà®ķà®®": 4779,
      "à¤ª": 4780,
      "226": 4781,
      "rem": 4782,
      "Ag": 4783,
      "CA": 4784,
      "à®²à®ķà®µ": 4785,
      "Ġà®ªà®ķà®°": 4786,
      "à®·à®¯": 4787,
      "Ġà®ĵà®°à®¤": 4788,
      "à®ķà®´à®ķ": 4789,
      "Ġà®ªà®°à®Ļ": 4790,
      "Ġà®ªà®°à®£à®°": 4791,
      "Ġ206": 4792,
      "olar": 4793,
      "ula": 4794,
      "ounc": 4795,
      "à®Ĳà®¤à®°à®ļà®©": 4796,
      "ĠIsland": 4797,
      "Le": 4798,
      "gan": 4799,
      "la": 4800,
      "mun": 4801,
      "Ñĥ": 4802,
      "à¯į*": 4803,
      "Ġà®ªà®¯à®°": 4804,
      "Ġà®ħà®²à®ļ": 4805,
      "Ġà®ªà®¯à®©à®±": 4806,
      "à®ļà®²à®¸": 4807,
      "Ġà®Ĩà®²à®¨": 4808,
      "ĠTown": 4809,
      "ĠNokia": 4810,
      "Ġà®ļà®£à®²": 4811,
      "Ġà®ªà®°à®®à®ķ": 4812,
      "à®ªà®´à®ķà®©": 4813,
      "berg": 4814,
      "of": 4815,
      "ring": 4816,
      "wood": 4817,
      "Ùĳ": 4818,
      "à®³à®°à®Ļ": 4819,
      "à®ļà®®à®£": 4820,
      "à®°à®ļà®Ļ": 4821,
      "Ġà®ħà®ķà®²à®¤": 4822,
      "ster": 4823,
      "à®Ĳà®Ļ": 4824,
      "ĠMag": 4825,
      "ĠMod": 4826,
      "ĠNadu": 4827,
      "ĠEle": 4828,
      "à®®à®¤à®°": 4829,
      "à®£à®µà®®": 4830,
      "Ġà®ıà®²à®®": 4831,
      "à®ħà®·": 4832,
      "ering": 4833,
      "Ġà®İà®²à®©": 4834,
      "Ġ171": 4835,
      "ocial": 4836,
      "ĠState": 4837,
      "Ġà®®à®£à®®à®ķà®³": 4838,
      "ipp": 4839,
      "Ġvol": 4840,
      "Thir": 4841,
      "Ġà®®à®°à®£à®¤à®£": 4842,
      "stitu": 4843,
      "ĠSeptember": 4844,
      "DR": 4845,
      "rum": 4846,
      "va": 4847,
      "Îµ": 4848,
      "à®ķà®©à®°": 4849,
      "à®±à®°à®ļ": 4850,
      "à®¨à®²à®¤": 4851,
      "à®¯à®°à®³à®µ": 4852,
      "à®Łà®©à®¤": 4853,
      "à®ľà®¯à®µ": 4854,
      "à®¤à®®à®£": 4855,
      "Ġà®Ĭà®ŀ": 4856,
      "Ġ325": 4857,
      "Ġà®®à®°à®ļ": 4858,
      "Ġà®ªà®¯à®£à®ķ": 4859,
      "1891": 4860,
      "1882": 4861,
      "ĠAt": 4862,
      "Ġà®īà®¤à®¯à®ķ": 4863,
      "ĠKing": 4864,
      "ociation": 4865,
      "ãĥ": 4866,
      "à®°à®ķà®µ": 4867,
      "à®Łà®£à®Ļ": 4868,
      "à®µà®ļà®Ļ": 4869,
      "Ġà®ļà®²à®µ": 4870,
      "à¯Ĥ!": 4871,
      "à®ķà®²à®ļ": 4872,
      "Ġà®®à®©à®µ": 4873,
      "à®ļà®®à®µ": 4874,
      "ĠAward": 4875,
      "Ġà®ķà®µà®ļ": 4876,
      "ĠMon": 4877,
      "ĠBar": 4878,
      "164": 4879,
      "152": 4880,
      "irc": 4881,
      "à®®à®°à®ªà®£": 4882,
      "Ġà®®à®£à®®à®ķà®©": 4883,
      "Ġà®ħà®µà®®à®¤": 4884,
      "km": 4885,
      "wam": 4886,
      "Ġà®²à®¯à®©": 4887,
      "à®Łà®®à®Ļ": 4888,
      "Ġà®ĩà®²à®µ": 4889,
      "1886": 4890,
      "205": 4891,
      "à®±à®µà®ŀ": 4892,
      "Ġà®·à®Ļ": 4893,
      "à®ħà®°à®ļà®°": 4894,
      "ade": 4895,
      "à®Īà®İà®ĥ": 4896,
      "119": 4897,
      "Ġhe": 4898,
      "à®ĩà®±à®¨": 4899,
      "003": 4900,
      "Ġà®ĩà®¤à®¯à®ķ": 4901,
      "Ġ330": 4902,
      "Ġ365": 4903,
      "à®ªà®²à®°": 4904,
      "1887": 4905,
      "Ġ..": 4906,
      "Ġ179": 4907,
      "223": 4908,
      "ship": 4909,
      "Or": 4910,
      "oz": 4911,
      "ti": 4912,
      "à®Łà®´": 4913,
      "à®ªà®Łà®°": 4914,
      "Ġà®Ĵà®¸": 4915,
      "à®ĩà®Łà®Ļ": 4916,
      "Ġ1840": 4917,
      "Ġ1862": 4918,
      "Ġ203": 4919,
      "Ġà®ªà®³à®ªà®³à®ª": 4920,
      "163": 4921,
      "254": 4922,
      "ental": 4923,
      "ote": 4924,
      "__": 4925,
      "oe": 4926,
      "yan": 4927,
      "à®¯à®¯": 4928,
      "à®´à®µà®©": 4929,
      "Ġ218": 4930,
      "Ġà®ħà®²à®°": 4931,
      "Ġà®Ĳà®ªà®ķ": 4932,
      "à®²à®ķà®ķ": 4933,
      "Ġ184": 4934,
      "Ġ1868": 4935,
      "1881": 4936,
      "à®®à®£à®Ļ": 4937,
      "ĠABC": 4938,
      "Ġ1300": 4939,
      "ĠBC": 4940,
      "146": 4941,
      "ĠHe": 4942,
      "Ġwas": 4943,
      "ĠRelig": 4944,
      "David": 4945,
      "FF": 4946,
      "UN": 4947,
      "ner": 4948,
      "rol": 4949,
      "Ùı": 4950,
      "Ġà®¤à®¸": 4951,
      "Ġ217": 4952,
      "Ġà®¯à®ķ": 4953,
      "Ġà®ĵà®°à®®": 4954,
      "Ġà®ªà®°à®µà®³": 4955,
      "à®³à®©à®µ": 4956,
      "umar": 4957,
      "Ġ1874": 4958,
      "ĠPC": 4959,
      "ĠPal": 4960,
      "Ġà®ĥà®ªà®¯à®°": 4961,
      "Ġà®ĥà®ķ": 4962,
      "142": 4963,
      "Ġ226": 4964,
      "Ġà®ħà®ķà®°à®µà®°": 4965,
      "Ġres": 4966,
      "Ġà®ħà®µà®ļà®°à®ķ": 4967,
      "alays": 4968,
      "ĠâĤ¹": 4969,
      "by": 4970,
      "à®ķà®Łà®ª": 4971,
      "Ġà®ħà®ķà®²à®ª": 4972,
      "Ġà®¨à®µà®°à®¤": 4973,
      "à®Łà®°à®ª": 4974,
      "à®²à®®à®Ł": 4975,
      "Ġà®¨à®ķà®°à®ļà®ª": 4976,
      "à®¤à®µà®°à®®": 4977,
      "ĠPri": 4978,
      "143": 4979,
      "275": 4980,
      "Ġnew": 4981,
      "annica": 4982,
      "ealth": 4983,
      "//": 4984,
      "à®©à®®à®©": 4985,
      "Ġà®®à®±à®¤": 4986,
      "Ġà®ļà®ķà®¤": 4987,
      "à®ĩà®°à®ļ": 4988,
      "Ġà®Ĵà®°à®¤": 4989,
      "à®ªà®°à®¸": 4990,
      "à®ħà®¯à®°": 4991,
      "Ġà®¹à®ľ": 4992,
      "1857": 4993,
      "Ġ204": 4994,
      "à®Ĳà®®": 4995,
      "etw": 4996,
      "attle": 4997,
      "ST": 4998,
      "hm": 4999,
      "hu": 5000,
      "uz": 5001,
      "à®°à®µà®²": 5002,
      "à¯į.'": 5003,
      "Ġà®ļà®®à®°à®ļ": 5004,
      "à®ļà®®à®ķ": 5005,
      "Ġà®µà®Łà®ļ": 5006,
      "à®ķà®©à®ķ": 5007,
      "Ġ183": 5008,
      "1861": 5009,
      "161": 5010,
      "139": 5011,
      "ility": 5012,
      "Ġ256": 5013,
      "ĠEng": 5014,
      "à®°à®ķà®Łà®©à®ª": 5015,
      "()": 5016,
      "James": 5017,
      "Ġà®µà®²à®ķ": 5018,
      "à®ªà®Łà®²à®¤": 5019,
      "Ġà®Łà®²": 5020,
      "à®ĩà®¤à®°": 5021,
      "à®ªà®ķà®µà®¤": 5022,
      "à®ļà®©à®ķ": 5023,
      "the": 5024,
      "ther": 5025,
      "Ġ182": 5026,
      "Ġ186": 5027,
      "Ġ1847": 5028,
      "Ġ1856": 5029,
      "185": 5030,
      "ĠCity": 5031,
      "Ġà®ķà®´à®±": 5032,
      "chi": 5033,
      "154": 5034,
      "228": 5035,
      "etic": 5036,
      "234": 5037,
      "Ġ280": 5038,
      "à®±à®°à®ļà®°": 5039,
      "formation": 5040,
      "Ġà®ªà®¯à®±": 5041,
      "à®ķà®³à®°": 5042,
      "Ġà®ĩà®²à®¨": 5043,
      "à®¤à®°à®²": 5044,
      "Ġà®ļà®®à®ļà®®": 5045,
      "ones": 5046,
      "ĠAC": 5047,
      "ĠBr": 5048,
      "rey": 5049,
      "ĠVo": 5050,
      "Ġà®®à®´à®µà®°": 5051,
      "Ġà®ªà®µà®³à®ª": 5052,
      "ĠâĪ": 5053,
      "Ġà®ľà®µà®¹à®°": 5054,
      "Bang": 5055,
      "ao": 5056,
      "uel": 5057,
      "à®°à®ªà®Ł": 5058,
      "à®°à®ķà®ķ": 5059,
      "Ġà®Ĩà®¤à®©": 5060,
      "0001": 5061,
      "Ġà®ıà®Ļ": 5062,
      "Ġà®ħà®°à®ļà®ķ": 5063,
      "Ġ639": 5064,
      "Ġ1846": 5065,
      "esc": 5066,
      "à®µà®£à®ķ": 5067,
      "ĠTal": 5068,
      "157": 5069,
      "ĠHigh": 5070,
      "ident": 5071,
      "rinc": 5072,
      "fe": 5073,
      "oo": 5074,
      "à®Łà®µà®³": 5075,
      "à®®à®ľ": 5076,
      "à®©à®®à®²": 5077,
      "à®¯à®©à®°": 5078,
      "Ġà®ķà®ļà®ª": 5079,
      "Ġà®īà®·": 5080,
      "Ġà®°à®£": 5081,
      "à®ħà®°à®ķ": 5082,
      "à®·à®¯à®¤": 5083,
      "Ġà®ļà®®à®ªà®Ļ": 5084,
      "Ġà®İà®¤à®±": 5085,
      "Ġ650": 5086,
      "enry": 5087,
      "à®ıà®±à®¤": 5088,
      "ĠMac": 5089,
      "itch": 5090,
      "ĠLi": 5091,
      "ude": 5092,
      "Ġà®ĩà®³à®µà®¯à®¤": 5093,
      "ling": 5094,
      "oard": 5095,
      "Ġare": 5096,
      "à®ļà®£à®®": 5097,
      "Ġà®¤à®ļà®°": 5098,
      "à®¯à®®à®¯à®®": 5099,
      "à®ªà®°à®²": 5100,
      "ĠIN": 5101,
      "ities": 5102,
      "224": 5103,
      "omen": 5104,
      "ĠEv": 5105,
      "ross": 5106,
      "Ġind": 5107,
      "à¯įâĢĿ,": 5108,
      "à¥ĭ": 5109,
      "Ġà®ħà®µà®ļà®°à®¨": 5110,
      "alayam": 5111,
      "217": 5112,
      "OL": 5113,
      "ux": 5114,
      "à®³à®©à®®": 5115,
      "Ġà®ħà®ķà®µà®²": 5116,
      "à®Łà®¤à®Ļ": 5117,
      "Ġà®²à®·": 5118,
      "Ġà®ªà®Łà®²": 5119,
      "à®¤à®ķà®ļ": 5120,
      "183": 5121,
      "1858": 5122,
      "1876": 5123,
      "ĠCont": 5124,
      "ication": 5125,
      "155": 5126,
      "ĠHT": 5127,
      "eum": 5128,
      "ugh": 5129,
      "Ã¦": 5130,
      "Ġà®ªà®¯à®¤": 5131,
      "Ġ214": 5132,
      "à®ķà®ªà®¤": 5133,
      "à®·à®Ļ": 5134,
      "erman": 5135,
      "inf": 5136,
      "aman": 5137,
      "amin": 5138,
      "ĠIs": 5139,
      "ĠBy": 5140,
      "à®²à®µà®°à®®": 5141,
      "ĠÎ¸": 5142,
      "ĠAssembly": 5143,
      "EN": 5144,
      "RFC": 5145,
      "ĠÙ": 5146,
      "à®ļà®ªà®¤": 5147,
      "Ġà®Ĩà®µà®²": 5148,
      "à®®à®²à®ª": 5149,
      "à¯Ī.\"": 5150,
      "à®¹à®°à®©": 5151,
      "rich": 5152,
      "ats": 5153,
      "atist": 5154,
      "à®¤à®¨à®²": 5155,
      "à®¯à®µà®´": 5156,
      "ĠNH": 5157,
      "ĠEast": 5158,
      "Ġsc": 5159,
      "PL": 5160,
      "à®®à®¯à®ķ": 5161,
      "Ġà®¨à®ľ": 5162,
      "Ġà®¨à®¯à®©": 5163,
      "Ġ221": 5164,
      "à®Łà®ķà®ļ": 5165,
      "araj": 5166,
      "171": 5167,
      "olic": 5168,
      "Ġ237": 5169,
      "ives": 5170,
      "ruct": 5171,
      "ĠISBN": 5172,
      "ĠÏĢ": 5173,
      "380": 5174,
      "CN": 5175,
      "EO": 5176,
      "Raj": 5177,
      "Si": 5178,
      "à®©à®¤à®²": 5179,
      "à®µà®Łà®¤": 5180,
      "à®ļà®°à®ª": 5181,
      "Ġà®®à®³": 5182,
      "Ġ(:": 5183,
      "Ġà®ľà®¹": 5184,
      "Ġ1815": 5185,
      "1885": 5186,
      "Ġ207": 5187,
      "308": 5188,
      "apt": 5189,
      "utt": 5190,
      "TH": 5191,
      "][": 5192,
      "à®¨à®Łà®©à®®": 5193,
      "Ġ(%)": 5194,
      "à®°à®®à®²": 5195,
      "à®¯à®¤à®®": 5196,
      "à®ľà®©à®¤": 5197,
      "à®¤à®°à®µà®°": 5198,
      "Ġà®īà®Łà®²à®®": 5199,
      "1864": 5200,
      "Ġ208": 5201,
      "238": 5202,
      "Ġ275": 5203,
      "iya": 5204,
      "ammad": 5205,
      "ĠBritannica": 5206,
      "Ac": 5207,
      "RNA": 5208,
      "pur": 5209,
      "Ġad": 5210,
      "à®¯à®µà®¤": 5211,
      "à¯į.âĢĿ": 5212,
      "Ġ213": 5213,
      "à®¯à®®à®®": 5214,
      "Ġà®ıà®£": 5215,
      "à®ħà®ķà®°à®®": 5216,
      "à®¤à®°à®ļà®®": 5217,
      "à®µà®©à®ļ": 5218,
      "Ġ187": 5219,
      "Ġ188": 5220,
      "ati": 5221,
      "Ġ1799": 5222,
      "ĠBBC": 5223,
      "156": 5224,
      "148": 5225,
      "1100": 5226,
      "ĠEconom": 5227,
      "Ġ227": 5228,
      "ouncil": 5229,
      "310": 5230,
      "650": 5231,
      "750": 5232,
      "Col": 5233,
      "PR": 5234,
      "Se": 5235,
      "Åį": 5236,
      "ãĤ": 5237,
      "à®ļà®ªà®°": 5238,
      "Ġà®®à®ķà®®": 5239,
      "à¯ĭ'": 5240,
      "Ġ211": 5241,
      "à®ħà®²à®Ļ": 5242,
      "Ġ340": 5243,
      "Ġ375": 5244,
      "Ġ978": 5245,
      "enk": 5246,
      "211": 5247,
      "Ġ245": 5248,
      "ĠWilliam": 5249,
      "ĠUK": 5250,
      "ava": 5251,
      "ĠAsia": 5252,
      "George": 5253,
      "Sri": 5254,
      "der": 5255,
      "Ġà®ķà®¤à®°": 5256,
      "Ġà®®à®²à®ķ": 5257,
      "Ġà®ħà®°à®ļà®ª": 5258,
      "1878": 5259,
      "à®ĩà®¤à®¯": 5260,
      "à®¯à®µà®°à®®": 5261,
      "151": 5262,
      "ures": 5263,
      "anda": 5264,
      "à®Ĭà®´": 5265,
      "rain": 5266,
      "Ġse": 5267,
      "ĠChap": 5268,
      "indows": 5269,
      "Ġà¦": 5270,
      "International": 5271,
      "ĠCambridge": 5272,
      "-)": 5273,
      "UR": 5274,
      "cis": 5275,
      "my": 5276,
      "à®²à®´à®±": 5277,
      "Ġà®īà®²à®µ": 5278,
      "à®¤à®°à®£": 5279,
      "Ġ322": 5280,
      "Ġ346": 5281,
      "Ġà®Ĳà®µ": 5282,
      "à®ļà®©à®ª": 5283,
      "à®ļà®®à®°": 5284,
      "arch": 5285,
      "1865": 5286,
      "1872": 5287,
      "1600": 5288,
      "à®¨à®Łà®µà®Ł": 5289,
      "reg": 5290,
      "Ġco": 5291,
      "ophy": 5292,
      "rity": 5293,
      "orpor": 5294,
      "BT": 5295,
      "EL": 5296,
      "PM": 5297,
      "à®¯à®£à®°": 5298,
      "Ġà®ªà®¤à®¤": 5299,
      "à®ĩà®±à®ķ": 5300,
      "Ġà®īà®³à®¨": 5301,
      "Ġà®ıà®¯": 5302,
      "à®¤à®°à®¨": 5303,
      "011": 5304,
      "Ġà®¤à®©à®®": 5305,
      "1867": 5306,
      "Ġà®ªà®´à®ļ": 5307,
      "ĠCan": 5308,
      "ĠAf": 5309,
      "ĠMy": 5310,
      "ĠGreat": 5311,
      "ayan": 5312,
      "à®ĵà®İà®¸": 5313,
      "ush": 5314,
      "Ġ265": 5315,
      "265": 5316,
      "à¯įâĢĻ,": 5317,
      "ĠISO": 5318,
      "ĠAssociation": 5319,
      "DL": 5320,
      "VI": 5321,
      "iet": 5322,
      "Ġim": 5323,
      "à®ªà®¹": 5324,
      "Ġà®Ĩà®ķà®®": 5325,
      "à®µà®¤à®°": 5326,
      "à®ħà®°à®£": 5327,
      "ĠâĢ¦": 5328,
      "Ġ1851": 5329,
      "ĠElect": 5330,
      "rap": 5331,
      "ible": 5332,
      "organ": 5333,
      "oseph": 5334,
      "Robert": 5335,
      ",\"": 5336,
      "440": 5337,
      "Na": 5338,
      "à®ļà®ķà®Ļ": 5339,
      "à®¤à®¤à®¤": 5340,
      "à®ľà®¯à®¤": 5341,
      "à®ľà®¯à®²à®Ł": 5342,
      "à®¤à®®à®ª": 5343,
      "Ġà®ªà®Łà®²à®Ļ": 5344,
      "à®·à®¯à®°": 5345,
      "Ġ380": 5346,
      "à®¤à®µà®ļ": 5347,
      "eration": 5348,
      "1850": 5349,
      "176": 5350,
      "159": 5351,
      "à¤ľ": 5352,
      "à®Īà®ª": 5353,
      "over": 5354,
      "ĠStates": 5355,
      "ergy": 5356,
      "ĠMartyn": 5357,
      "Ap": 5358,
      "off": 5359,
      "Ġà®¶": 5360,
      "Ġà®ķà®®à®°": 5361,
      "Ġà®®à®¤à®µ": 5362,
      "Ġà®¤à®ķà®ª": 5363,
      "Ġà®¨à®²à®Ļ": 5364,
      "à®ķà®¤à®µ": 5365,
      "Ġ324": 5366,
      "à¯į)-": 5367,
      "184": 5368,
      "à®®à®£à®ļ": 5369,
      "ĠCar": 5370,
      "178": 5371,
      "à¤¹": 5372,
      "227": 5373,
      "ĠWeb": 5374,
      "ransl": 5375,
      "ibr": 5376,
      "ĠSchool": 5377,
      "à®°à®ķà®ª": 5378,
      "à®µà®°à®¤à®°": 5379,
      "Ġà®Łà®¯à®°": 5380,
      "013": 5381,
      "Ġ1830": 5382,
      "Ġ1849": 5383,
      "189": 5384,
      "169": 5385,
      "Ġ247": 5386,
      "ĠEarth": 5387,
      "Ġ235": 5388,
      "aka": 5389,
      "ments": 5390,
      "ukk": 5391,
      "Mah": 5392,
      "Source": 5393,
      "].": 5394,
      "Ä«": 5395,
      "Ġqu": 5396,
      "à¯į[": 5397,
      "à®²à®Łà®®": 5398,
      "Ġà®ķà®·": 5399,
      "Ġà®¨à®·": 5400,
      "192": 5401,
      "à®¿...": 5402,
      "014": 5403,
      "à®İà®©à®¤": 5404,
      "186": 5405,
      "1883": 5406,
      "1879": 5407,
      "ĠSN": 5408,
      "177": 5409,
      "ita": 5410,
      "urope": 5411,
      "237": 5412,
      "athan": 5413,
      "ffect": 5414,
      "à·Ĭ": 5415,
      "Ġà®¤à®ķà®µà®®": 5416,
      "ĠWWF": 5417,
      "Ġwebsite": 5418,
      ",,": 5419,
      "Gl": 5420,
      "SR": 5421,
      "Â½": 5422,
      "Ġà®ªà®·": 5423,
      "à®¨à®®à®¤": 5424,
      "à®ªà®°à®ļà®©": 5425,
      "à®Ĩà®°à®£": 5426,
      "Ġ480": 5427,
      "1871": 5428,
      "à¯ģ);": 5429,
      "153": 5430,
      "ĠDavid": 5431,
      "à¤Ĺ": 5432,
      "à®Īà®´à®ª": 5433,
      "Ġcell": 5434,
      "Ġcont": 5435,
      "Ġnot": 5436,
      "Îº": 5437,
      "×Ļ": 5438,
      "à®Łà®ķà®µ": 5439,
      "à®¯à®ľ": 5440,
      "à®µà®Łà®ª": 5441,
      "Ġ191": 5442,
      "017": 5443,
      "à®®à®©à®ļ": 5444,
      "Ġà®µà®Łà®¨": 5445,
      "Ġ1825": 5446,
      "ĠHist": 5447,
      "ĠLaw": 5448,
      "Ġ231": 5449,
      "290": 5450,
      "rag": 5451,
      "Ġdata": 5452,
      "ĠIslam": 5453,
      "ĠBooks": 5454,
      "QL": 5455,
      "sch": 5456,
      "view": 5457,
      "Ñı": 5458,
      "à®©à®¤à®©": 5459,
      "à®³à®µà®±": 5460,
      "à®ľà®ªà®ķ": 5461,
      "à®ħà®Łà®°": 5462,
      "Ġà®ĩà®²à®ļ": 5463,
      "à®Ĩà®ķà®µ": 5464,
      "015": 5465,
      "à®īà®¤à®¯": 5466,
      "1875": 5467,
      "ĠSan": 5468,
      "ĠRFC": 5469,
      "à®Łà®¨à®®": 5470,
      "ĠFlag": 5471,
      "ĠTechnology": 5472,
      "ball": 5473,
      "Î¯": 5474,
      "à®°à®³à®ª": 5475,
      "à®³à®³": 5476,
      "à®ķà®°à®£à®®": 5477,
      "Ġà®Ĩà®ķà®²": 5478,
      "à®ľà®¨": 5479,
      "à®ķà®²à®¨": 5480,
      "018": 5481,
      "ĠSingh": 5482,
      "ĠBas": 5483,
      "itis": 5484,
      "unn": 5485,
      "avan": 5486,
      "ove": 5487,
      "EEE": 5488,
      "stituency": 5489,
      "LA": 5490,
      "On": 5491,
      "Sir": 5492,
      "vin": 5493,
      "à®¿|": 5494,
      "à®¾à¯į.": 5495,
      "Ġà®ħà®ĥà®¤": 5496,
      "Ġà®¨à®¯à®®": 5497,
      "Ġà®īà®°à®¤": 5498,
      "à®¯à®ķà®±": 5499,
      "Ġ550": 5500,
      "Ġà®®à®£à®¤": 5501,
      "1860": 5502,
      "à¯Ģ..": 5503,
      "à®ľà®©à®ķà®°": 5504,
      "ĠEmp": 5505,
      "Ġ232": 5506,
      "ctor": 5507,
      "raw": 5508,
      "ĠKn": 5509,
      "ĠJames": 5510,
      "osis": 5511,
      "aik": 5512,
      "NET": 5513,
      "],": 5514,
      "wik": 5515,
      "à¯ģà¯į": 5516,
      "à®¯à®ķà®µ": 5517,
      "Ġà®ļà®ķà®ª": 5518,
      "à®³à®°à®µ": 5519,
      "Ġà®ªà®¤à®±": 5520,
      "Ġà®Īà®¨": 5521,
      "188": 5522,
      "1848": 5523,
      "à®Ĵà®£": 5524,
      "ĠSam": 5525,
      "à®Ĳà®İà®¸": 5526,
      "Ġ1100": 5527,
      "ĠIT": 5528,
      "ander": 5529,
      "256": 5530,
      "ays": 5531,
      "ĠLa": 5532,
      "285": 5533,
      "epart": 5534,
      "ĠUSB": 5535,
      "ĠEdition": 5536,
      "India": 5537,
      "à³į": 5538,
      ".(": 5539,
      "340": 5540,
      "370": 5541,
      "480": 5542,
      "DD": 5543,
      "dia": 5544,
      "hal": 5545,
      "ÆĴ": 5546,
      "Ġup": 5547,
      "à®¨à®Łà®©": 5548,
      "Ġ(=": 5549,
      "Ġà®ķà®²à®ļ": 5550,
      "Ġà®ªà®°à®ķ": 5551,
      "Ġ420": 5552,
      "Ġà®ħà®µà®ķ": 5553,
      "à®¹à®ª": 5554,
      "à®¨à®ķà®°à®ļà®ª": 5555,
      "à¯ĩ...": 5556,
      "ĠCal": 5557,
      "ĠCath": 5558,
      "à®ıà®²": 5559,
      "ĠIm": 5560,
      "ĠReg": 5561,
      "ille": 5562,
      "229": 5563,
      "291": 5564,
      "ĠParty": 5565,
      "PC": 5566,
      "Richard": 5567,
      "top": 5568,
      "Ġæ": 5569,
      "Ġà®ļà®·": 5570,
      "Ġà®ħà®ļà®©": 5571,
      "Ġà®²à®¯": 5572,
      "à®°à®®à®¯à®®": 5573,
      "à®ľà®ķà®ª": 5574,
      "Ġà®¨à®ķà®°à®ķ": 5575,
      "Ġ1820": 5576,
      "Ġà®ļà®°à®£à®®": 5577,
      "1869": 5578,
      "Ġà®ļà®ķà®¸": 5579,
      "ĠRuss": 5580,
      "305": 5581,
      "ĠHouse": 5582,
      "239": 5583,
      "ĠOf": 5584,
      "à¯Ī\",": 5585,
      "cept": 5586,
      "Ġà¶": 5587,
      "ĠAncient": 5588,
      "ĠDevelopment": 5589,
      "ble": 5590,
      "ks": 5591,
      "pos": 5592,
      "Ã¶": 5593,
      "à®ķà®ļà®®": 5594,
      "à®°à®¯à®®": 5595,
      "à®©à®¤à®®": 5596,
      "Ġà®īà®³à®¤": 5597,
      "à®ħà®ķà®®à®¤": 5598,
      "Ġà®ķà®²à®°": 5599,
      "Ġà®¹à®ļà®©": 5600,
      "atch": 5601,
      "Ġà®ķà®©à®²": 5602,
      "ĠPat": 5603,
      "173": 5604,
      "ĠNA": 5605,
      "edu": 5606,
      "245": 5607,
      "Ġ258": 5608,
      "à®Īà®´": 5609,
      "ĠVal": 5610,
      "ivil": 5611,
      "345": 5612,
      "uper": 5613,
      "aster": 5614,
      "ĠCommission": 5615,
      "Ġconstituency": 5616,
      "Gen": 5617,
      "PP": 5618,
      "back": 5619,
      "nam": 5620,
      "ve": 5621,
      "ËĲ": 5622,
      "à®ªà®±à®®": 5623,
      "à¯ĭ!": 5624,
      "193": 5625,
      "à®²à®ķà®ļ": 5626,
      "Ġ1853": 5627,
      "187": 5628,
      "206": 5629,
      "209": 5630,
      "Ġà®ªà®©à®Ļ": 5631,
      "Ġà®Ĩà®²à®ļà®©": 5632,
      "172": 5633,
      "ola": 5634,
      "ĠEl": 5635,
      "ĠWi": 5636,
      "999": 5637,
      "Ġwh": 5638,
      "Ġval": 5639,
      "ustral": 5640,
      "ears": 5641,
      "ricket": 5642,
      "à®®à®¤à®ª": 5643,
      "à®¯à®ķà®²": 5644,
      "à®£à®²à®¤": 5645,
      "Ġà®ħà®ķà®Ł": 5646,
      "Ġà®ıà®²à®ķ": 5647,
      "Ġ338": 5648,
      "Ġà®ĩà®¤à®©à®°": 5649,
      "Ġ1801": 5650,
      "atus": 5651,
      "Ġà®µà®²à®¯à®Ļ": 5652,
      "182": 5653,
      "208": 5654,
      "omy": 5655,
      "Ġ305": 5656,
      "Ġ228": 5657,
      "ĠWork": 5658,
      "osph": 5659,
      "ĠVoIP": 5660,
      "Banglad": 5661,
      "CT": 5662,
      "Ġart": 5663,
      "à®®à®Łà®ķ": 5664,
      "à®ķà®³à®©": 5665,
      "à¯ĩâĢĻ": 5666,
      "à¯Ĥ\"": 5667,
      "Ġà®İà®®à®¤": 5668,
      "à®²à®®à®²": 5669,
      "Ġ329": 5670,
      "Ġà®ªà®°à®ŀ": 5671,
      "ĠBro": 5672,
      "ĠGE": 5673,
      "ĠDNS": 5674,
      "à¯į'.": 5675,
      "243": 5676,
      "Ġ:-": 5677,
      "athi": 5678,
      "Last": 5679,
      "ng": 5680,
      "à½": 5681,
      "004": 5682,
      "à®ķà®´à®ķà®ķ": 5683,
      "Ġ1837": 5684,
      "Ġ1854": 5685,
      "1874": 5686,
      "149": 5687,
      "Ġ243": 5688,
      "Ġ236": 5689,
      "emp": 5690,
      "ebut": 5691,
      "rown": 5692,
      "Ġ9001": 5693,
      "Li": 5694,
      "MI": 5695,
      "PS": 5696,
      "kar": 5697,
      "pg": 5698,
      "uan": 5699,
      "vir": 5700,
      "Ã³": 5701,
      "ØŃ": 5702,
      "à®©à®ķà®²": 5703,
      "Ġà®Łà®Ł": 5704,
      "Ġà®ħà®Łà®²": 5705,
      "à®£à®®à®Ļ": 5706,
      "1877": 5707,
      "1884": 5708,
      "oral": 5709,
      "eshi": 5710,
      "à®Ĳà®¸": 5711,
      "Ġph": 5712,
      "à¤£": 5713,
      "ĠÂ±": 5714,
      "212": 5715,
      "850": 5716,
      "Par": 5717,
      "à®¯à®©à®¤": 5718,
      "Ġà®¨à®´": 5719,
      "191": 5720,
      "Ġà®ªà®¤à®ŀ": 5721,
      "à®©à®®à®Ł": 5722,
      "Ġ1844": 5723,
      "181": 5724,
      "1863": 5725,
      "Ġ''": 5726,
      "ional": 5727,
      "ĠRh": 5728,
      "ĠGroup": 5729,
      "eli": 5730,
      "elli": 5731,
      "247": 5732,
      "ulf": 5733,
      "emat": 5734,
      "ival": 5735,
      "light": 5736,
      "à¯į?\"": 5737,
      "uck": 5738,
      "à¦¾": 5739,
      "301": 5740,
      "325": 5741,
      "420": 5742,
      "De": 5743,
      "Sch": 5744,
      "ca": 5745,
      "ms": 5746,
      "put": 5747,
      "Ð´": 5748,
      "Ġag": 5749,
      "à®²à®ªà®Ł": 5750,
      "à®¯à®Łà®ķ": 5751,
      "à®´à®ķà®©": 5752,
      "à®ªà®°à®£à®®": 5753,
      "Ġà®ķà®²à®µà®©": 5754,
      "Ġ1845": 5755,
      "Ġà®ªà®¯à®£à®ª": 5756,
      "à®ķà®ļà®ķ": 5757,
      "1866": 5758,
      "ices": 5759,
      "Ġname": 5760,
      "Ġà®ªà®²à®©à®³": 5761,
      "ĠEngine": 5762,
      "216": 5763,
      "wan": 5764,
      "âĪ": 5765,
      "à®ªà®£à®¤": 5766,
      "à®µà®°à®£": 5767,
      "Ġà®°à®Ł": 5768,
      "Ġà®ªà®¯à®©à®Ł": 5769,
      "Ġà®Ĩà®°à®µ": 5770,
      "Ġ1841": 5771,
      "Ġà®µà®°à®²à®Ł": 5772,
      "Ġà®ķà®©à®µà®³à®µ": 5773,
      "ĠBank": 5774,
      "284": 5775,
      "375": 5776,
      "rint": 5777,
      "ĠStudies": 5778,
      "BI": 5779,
      "EA": 5780,
      "IF": 5781,
      "Qu": 5782,
      "Ã¤": 5783,
      "âĻ": 5784,
      "Ġà®¤à®¯à®ķ": 5785,
      "à®ħà®ķà®²": 5786,
      "à®ħà®±à®®": 5787,
      "Ġà®¨à®Łà®µ": 5788,
      "Ġà®ķà®²à®µà®°à®Ļ": 5789,
      "Ġà®ħà®²à®ª": 5790,
      "Ġà®ĵà®ªà®©": 5791,
      "Ġ9000": 5792,
      "1862": 5793,
      "ĠpH": 5794,
      "244": 5795,
      "Ġ255": 5796,
      "osa": 5797,
      "à¯į!\"": 5798,
      "ĠMuseum": 5799,
      "ĠChemistry": 5800,
      "ki": 5801,
      "ney": 5802,
      "Î²": 5803,
      "à®ļà®²à®ķ": 5804,
      "à®£à®¯à®ķ": 5805,
      "à¯Ģ/": 5806,
      "Ġà®Ĩà®µà®Ł": 5807,
      "Ġà®ıà®µà®²": 5808,
      "à®ħà®µà®¤": 5809,
      "à®ķà®µà®´à®ķ": 5810,
      "à®Łà®ªà®Ļ": 5811,
      "Ġà®ļà®®à®£à®®": 5812,
      "Ġà®®à®°à®µà®³": 5813,
      "à®°à®£à®ķ": 5814,
      "203": 5815,
      "ĠCouncil": 5816,
      "162": 5817,
      "ĠDVD": 5818,
      "304": 5819,
      "333": 5820,
      "Ġdes": 5821,
      "Ġà®īà®ªà®ķà®°à®£à®®": 5822,
      "ĠPublic": 5823,
      "à®²à®ļà®®à®¯à®Ļ": 5824,
      "epartment": 5825,
      "660": 5826,
      "Kar": 5827,
      "Kal": 5828,
      "á¹": 5829,
      "à®ķà®ķà®®": 5830,
      "à®±à®¯": 5831,
      "à®±à®µà®ķ": 5832,
      "à¯ĩâĢĿ": 5833,
      "Ġà®²à®ª": 5834,
      "à®ĩà®°à®ķ": 5835,
      "à®ľà®°à®¤": 5836,
      "à®ķà®µà®´": 5837,
      "à®®à®©à®ª": 5838,
      "à®ļà®®à®ª": 5839,
      "Ġà®īà®£à®µà®³": 5840,
      "à®īà®©à®ķ": 5841,
      "à®°à®£à®µ": 5842,
      "iness": 5843,
      "enz": 5844,
      "ĠCR": 5845,
      "à®ıà®®": 5846,
      "Ġper": 5847,
      "Ġ233": 5848,
      "Ġ239": 5849,
      "Ġ268": 5850,
      "Ġ269": 5851,
      "Ġ229": 5852,
      "ĠKhan": 5853,
      "337": 5854,
      "idae": 5855,
      "ĠInter": 5856,
      "Ġla": 5857,
      "ctions": 5858,
      "ATA": 5859,
      "ucle": 5860,
      "minist": 5861,
      "Bh": 5862,
      "cle": 5863,
      "kin": 5864,
      "we": 5865,
      "Î·": 5866,
      "Ġà®ªà®±à®¤": 5867,
      "à®¨à®µà®ķ": 5868,
      "Ġ219": 5869,
      "à®Łà®®à®³": 5870,
      "Ġà®ľà®¯à®µà®°": 5871,
      "Ġ310": 5872,
      "Ġ\",": 5873,
      "à®ķà®£à®µ": 5874,
      "1855": 5875,
      "1859": 5876,
      "à®®à®£à®µ": 5877,
      "204": 5878,
      "ĠHand": 5879,
      "231": 5880,
      "à®ĵà®ķ": 5881,
      "resent": 5882,
      "ĠRobert": 5883,
      "213": 5884,
      "eph": 5885,
      "ps": 5886,
      "vi": 5887,
      "ĠÙħ": 5888,
      "à®¤à®ªà®¤": 5889,
      "Ġà®ķà®¤à®®": 5890,
      "Ġà®ķà®³à®°": 5891,
      "Ġà®µà®ļà®ª": 5892,
      "Ġà®ĩà®ķà®´": 5893,
      "à®®à®©à®ķ": 5894,
      "à®³à®µà®¨": 5895,
      "à®ķà®©à®©": 5896,
      "Ġà®¤à®°à®ķà®°": 5897,
      "Ġ850": 5898,
      "ams": 5899,
      "Ġà®īà®¤à®¯à®£à®©": 5900,
      "179": 5901,
      "itage": 5902,
      "ĠRed": 5903,
      "ourt": 5904,
      "peration": 5905,
      "ĠOnline": 5906,
      "frame": 5907,
      "etwork": 5908,
      "Bar": 5909,
      "bs": 5910,
      "mar": 5911,
      "uh": 5912,
      "wa": 5913,
      "à®¯à®µà®ķ": 5914,
      "à®°à®®à®°": 5915,
      "à®¤à®°à®ŀ": 5916,
      "Ġ335": 5917,
      "Ġ334": 5918,
      "thur": 5919,
      "ĠCast": 5920,
      "Ġà®µà®³à®ª": 5921,
      "236": 5922,
      "Ġà®µà®ļà®©à®¤": 5923,
      "363": 5924,
      "ĠChurch": 5925,
      "ather": 5926,
      "Ġà®ļà®®à®°à®ļà®®": 5927,
      "ĠÂ½": 5928,
      "ottai": 5929,
      "ledge": 5930,
      "215": 5931,
      "430": 5932,
      "tra": 5933,
      "Ġus": 5934,
      "Ġra": 5935,
      "à®Łà®ªà®³": 5936,
      "à®Łà®ķà®©": 5937,
      "Ġà®ªà®¤à®Ł": 5938,
      "Ġà®Īà®´à®®": 5939,
      "atural": 5940,
      "Ġ1400": 5941,
      "ĠMalays": 5942,
      "à®ĩà®¤à®¯à®¤": 5943,
      "233": 5944,
      "ington": 5945,
      "iah": 5946,
      "ister": 5947,
      "obal": 5948,
      "ysis": 5949,
      "rincip": 5950,
      "?)": 5951,
      "He": 5952,
      "me": 5953,
      "ule": 5954,
      "à®®à®°à®ļ": 5955,
      "Ġà®ļà®¤à®°": 5956,
      "Ġà®ħà®ľà®¯": 5957,
      "à¯Ĥ)": 5958,
      "à®µà®¤à®¤": 5959,
      "Ġ1831": 5960,
      "Ġ1843": 5961,
      "ĠPhys": 5962,
      "ament": 5963,
      "à®±à®µà®³": 5964,
      "ĠMath": 5965,
      "ĠData": 5966,
      "286": 5967,
      "343": 5968,
      "osp": 5969,
      "fficial": 5970,
      "par": 5971,
      "ront": 5972,
      "ãģ": 5973,
      "à¯į_": 5974,
      "à®ķà®¯à®®": 5975,
      "à®ªà®µà®²": 5976,
      "à®ªà®±à®ķ": 5977,
      "à¯Ģ\"": 5978,
      "à®ķà®°à®²": 5979,
      "à®¯à®®à®µ": 5980,
      "à®©à®¤à®±": 5981,
      "Ġà®ĵà®µà®²": 5982,
      "Ġ390": 5983,
      "Ġ\".": 5984,
      "Ġ1814": 5985,
      "à®²à®ªà®³": 5986,
      "Ġ802": 5987,
      "1868": 5988,
      "enc": 5989,
      "Ġà®¤à®Łà®¯à®Ļ": 5990,
      "ora": 5991,
      "ĠTN": 5992,
      "olit": 5993,
      "elf": 5994,
      "apan": 5995,
      "ĠUnion": 5996,
      "oyal": 5997,
      "DN": 5998,
      "El": 5999,
      "IG": 6000,
      "Im": 6001,
      "ä¸": 6002,
      "Ġà®İà®©à®ªà®¤": 6003,
      "à®°à®®à®±": 6004,
      "Ġ328": 6005,
      "à®²à®ķà®©": 6006,
      "Ġà®ļà®®à®±": 6007,
      "à®µà®®à®£": 6008,
      "à®ļà®®à®¸": 6009,
      "à®µà®²à®Ļ": 6010,
      "Ġà®®à®°à®ķà®¤": 6011,
      "Ġà®ĩà®Łà®µà®ļà®¤": 6012,
      "ĠPe": 6013,
      "Ġ1790": 6014,
      "ĠDo": 6015,
      "à¯į'''": 6016,
      "252": 6017,
      "ĠEm": 6018,
      "roduction": 6019,
      "262": 6020,
      "266": 6021,
      "Ġborder": 6022,
      "ape": 6023,
      "Ġà®īà®²à®ķà®®à®¯à®®": 6024,
      "ants": 6025,
      "Ġacid": 6026,
      ")),": 6027,
      "AF": 6028,
      "Moh": 6029,
      "rd": 6030,
      "uff": 6031,
      "à®°à®ķà®©": 6032,
      "à®¯à®µà®²": 6033,
      "à®ķà®²à®°": 6034,
      "à®İà®²à®ķ": 6035,
      "ero": 6036,
      "eries": 6037,
      "Ġ1842": 6038,
      "1815": 6039,
      "ĠSil": 6040,
      "Ġà®ļà®¤à®Ļ": 6041,
      "à®µà®´à®®": 6042,
      "ĠDNA": 6043,
      "à¤¶": 6044,
      "Ġ274": 6045,
      "287": 6046,
      "Ġ282": 6047,
      "458": 6048,
      "Ġà®®à®£à®®à®ķ": 6049,
      "Ġstyle": 6050,
      "ights": 6051,
      "Bangladeshi": 6052,
      "DC": 6053,
      "à®¤à®³à®°": 6054,
      "à®ªà®ľ": 6055,
      "à®©à®ªà®Ł": 6056,
      "Ġà®¤à®°à®ļ": 6057,
      "Ġà®İà®®à®©": 6058,
      "à®¯à®²à®ķ": 6059,
      "Ġ1822": 6060,
      "Ġ1839": 6061,
      "rian": 6062,
      "esis": 6063,
      "ĠMP": 6064,
      "1700": 6065,
      "Ġpart": 6066,
      "à®¤à®±à®Ł": 6067,
      "Ġà®·à®ķ": 6068,
      "Ġà®Ĩà®¤à®°à®µà®±": 6069,
      "Ġ261": 6070,
      "269": 6071,
      "Ġ288": 6072,
      "aksh": 6073,
      "ĠChina": 6074,
      "ateg": 6075,
      "Charles": 6076,
      "à®Ķà®µ": 6077,
      "Dr": 6078,
      "IK": 6079,
      "La": 6080,
      "PU": 6081,
      "×ķ": 6082,
      "Ġund": 6083,
      "à¯Ĭ)": 6084,
      "Ġà®İà®µà®©": 6085,
      "Ġà®¯à®®à®©": 6086,
      "à®ĩà®³à®µ": 6087,
      "Ġà®ħà®²à®©": 6088,
      "012": 6089,
      "Ġà®¤à®²à®µ": 6090,
      "Ġà®Īà®´à®¨": 6091,
      "Ġ1852": 6092,
      "aria": 6093,
      "alk": 6094,
      "ĠSO": 6095,
      "ĠSub": 6096,
      "ĠGod": 6097,
      "ĠLCD": 6098,
      "Ġ262": 6099,
      "Ġà®Ĳà®¤à®°à®ļ": 6100,
      "avi": 6101,
      "ÙİÙĳ": 6102,
      "312": 6103,
      "640": 6104,
      "Paul": 6105,
      "well": 6106,
      "Ã§": 6107,
      "à®µà®ķà®©": 6108,
      "Ġà®®à®´à®²": 6109,
      "à®²à®®à®±": 6110,
      "Ġ301": 6111,
      "à®īà®¨": 6112,
      "1873": 6113,
      "ences": 6114,
      "ĠST": 6115,
      "ĠIt": 6116,
      "Ġà®īà®£à®µà®ķà®¤": 6117,
      "ĠGoogle": 6118,
      "ĠDr": 6119,
      "ĠHill": 6120,
      "241": 6121,
      "Ġ238": 6122,
      "ĠFA": 6123,
      "336": 6124,
      "338": 6125,
      "Ġdis": 6126,
      "Ġ404": 6127,
      "ots": 6128,
      "even": 6129,
      "Ġà®¨à®°à®ķà®¤": 6130,
      "à®ļà®¯à®¨à®ķà®°à®ª": 6131,
      "ĠClass": 6132,
      "Ġà¯Ń": 6133,
      "ĠReview": 6134,
      "rated": 6135,
      "uj": 6136,
      "Å«": 6137,
      "Øª": 6138,
      "Ġrowspan": 6139,
      "Ġà®Ĩà®ķà®®à®®": 6140,
      "à®ħà®®à®²": 6141,
      "à®µà®®à®Ł": 6142,
      "Ġ440": 6143,
      "Ġà®ĩà®ļà®ª": 6144,
      "à¯į---": 6145,
      "rial": 6146,
      "atory": 6147,
      "ĠCup": 6148,
      "ĠAR": 6149,
      "Ġ1795": 6150,
      "à¤§": 6151,
      "257": 6152,
      "Ġ246": 6153,
      "Ġ264": 6154,
      "264": 6155,
      "299": 6156,
      "331": 6157,
      "374": 6158,
      "ĠChand": 6159,
      "epend": 6160,
      "à®ļà®¯à®®à®±": 6161,
      "oride": 6162,
      "Ġaccessed": 6163,
      "ĠAcadem": 6164,
      "Ã¦dia": 6165,
      ">(": 6166,
      "IX": 6167,
      "PDF": 6168,
      "UT": 6169,
      "wo": 6170,
      "Ġê¢": 6171,
      "à¯ĩ?": 6172,
      "Ġà®ħà®ĥà®±": 6173,
      "à®ľà®Ł": 6174,
      "à®ľà®£": 6175,
      "Ġà®ħà®©à®ķ": 6176,
      "Ġ345": 6177,
      "Ġà®Ĳà®¯à®¤": 6178,
      "Ġà®Ĩà®°à®ķ": 6179,
      "Ġ1818": 6180,
      "Ġ1812": 6181,
      "arp": 6182,
      "Ġ8000": 6183,
      "1832": 6184,
      "Ġ1789": 6185,
      "ely": 6186,
      "ĠLTE": 6187,
      "Ġthat": 6188,
      "339": 6189,
      "Ġà®µà®Łà®®à®°": 6190,
      "Ġvs": 6191,
      "à·Ĵ": 6192,
      "à±į": 6193,
      "ĠReport": 6194,
      "rishn": 6195,
      "urvey": 6196,
      "Bi": 6197,
      "Cent": 6198,
      "Phil": 6199,
      "South": 6200,
      "ground": 6201,
      "mod": 6202,
      "rel": 6203,
      "td": 6204,
      "à®±à®µà®®": 6205,
      "Ġà®ªà®¯à®ķ": 6206,
      "à®£à®°à®ª": 6207,
      "Ġà®ķà®²à®ķà®¤": 6208,
      "à®Ĩà®·": 6209,
      "Ġ312": 6210,
      "Ġ323": 6211,
      "Ġà®Ĳà®ļà®ķ": 6212,
      "Ġà®ªà®°à®°": 6213,
      "à®¤à®µà®£": 6214,
      "Ġ430": 6215,
      "Ġà®īà®£à®µà®ķ": 6216,
      "Ġà®®à®²à®Ł": 6217,
      "ĠAli": 6218,
      "Ġ1750": 6219,
      "ĠMal": 6220,
      "ĠMark": 6221,
      "ĠTer": 6222,
      "ĠRec": 6223,
      "omet": 6224,
      "Ġ242": 6225,
      "à®Īà®ķ": 6226,
      "296": 6227,
      "273": 6228,
      "Ġlanguage": 6229,
      "ĠEmpire": 6230,
      "780": 6231,
      "For": 6232,
      "HT": 6233,
      "See": 6234,
      "df": 6235,
      "met": 6236,
      "ming": 6237,
      "Ð¹": 6238,
      "à®ķà®Łà®ķ": 6239,
      "à®®à®²à®¤": 6240,
      "à¯Ī?": 6241,
      "Ġà®¤à®µà®£": 6242,
      "à®£à®µà®ª": 6243,
      "Ġà®İà®¯à®°": 6244,
      "à®ĩà®Łà®ª": 6245,
      "à®ªà®°à®£à®°": 6246,
      "Ġà®Ĭà®Łà®²": 6247,
      "016": 6248,
      "Ġ1803": 6249,
      "ines": 6250,
      "à®´à®ķà®ļ": 6251,
      "Ġ1798": 6252,
      "à®Ĳà®İà®©": 6253,
      "1500": 6254,
      "ĠGovernment": 6255,
      "253": 6256,
      "Ġ248": 6257,
      "âĢĻâĢĻ": 6258,
      "708": 6259,
      "365": 6260,
      "à®¾\",": 6261,
      "à®īà®²à®ķà®ķ": 6262,
      "ransp": 6263,
      "à´¾": 6264,
      "ĠEduc": 6265,
      "ĠWWE": 6266,
      "ĠChapter": 6267,
      "410": 6268,
      "460": 6269,
      "GA": 6270,
      "be": 6271,
      "van": 6272,
      "à®¶": 6273,
      "Ġà®ķà®ĥà®ª": 6274,
      "Ġà®¤à®ľ": 6275,
      "à®¨à®¯à®©": 6276,
      "Ġà®µà®Łà®²": 6277,
      "à®ķà®®à®©": 6278,
      "Ġà®®à®ķà®ļ": 6279,
      "Ġà®Ĭà®µ": 6280,
      "à®·à®ķ": 6281,
      "Ġà®ĵà®ªà®°": 6282,
      "Ġ377": 6283,
      "à®°à®ªà®²à®ª": 6284,
      "ĠNe": 6285,
      "Ġ266": 6286,
      "802": 6287,
      "335": 6288,
      "ists": 6289,
      "ĠOF": 6290,
      "ĠOS": 6291,
      "Ġà®ªà®µà®³à®¤": 6292,
      "ians": 6293,
      "Ġalso": 6294,
      "Ġà®ļà®°à®µà®£à®®": 6295,
      "Ġedition": 6296,
      "à®°à®ķà®Łà®©à®¤": 6297,
      "à®¿++": 6298,
      "610": 6299,
      "710": 6300,
      "760": 6301,
      "IFA": 6302,
      "Mon": 6303,
      "OP": 6304,
      "Sam": 6305,
      "cord": 6306,
      "ye": 6307,
      "Ġit": 6308,
      "à®¿]": 6309,
      "Ġà®ªà®©à®®": 6310,
      "à®ļà®²à®¤": 6311,
      "à®£à®µà®ķ": 6312,
      "Ġà®ħà®ķà®ķ": 6313,
      "Ġà®Ĩà®ķà®®à®Ļ": 6314,
      "Ġ223": 6315,
      "à®Łà®®à®²": 6316,
      "Ġ347": 6317,
      "Ġà®Ĳà®ļà®©": 6318,
      "à®³à®µà®ķ": 6319,
      "Ġà®¹à®£": 6320,
      "Ġ520": 6321,
      "1814": 6322,
      "Ġà®ķà®©à®ķà®ļà®ª": 6323,
      "ĠMov": 6324,
      "Ġà®īà®¤à®¯à®©": 6325,
      "itz": 6326,
      "ĠRiver": 6327,
      "andard": 6328,
      "Ġ244": 6329,
      "usiness": 6330,
      "reed": 6331,
      "452": 6332,
      "angalam": 6333,
      "Christ": 6334,
      "à®ķà®µà®¤à®®": 6335,
      "Ø§ÙĨ": 6336,
      "ief": 6337,
      "script": 6338,
      "ĠCompany": 6339,
      "ĠReligion": 6340,
      "218": 6341,
      "520": 6342,
      "Gu": 6343,
      "Google": 6344,
      "jpg": 6345,
      "Ã¨": 6346,
      "ĠÆĴ": 6347,
      "Ġà®µà®°à®¤à®Ł": 6348,
      "à®Ĩà®ĥà®ª": 6349,
      "à®©à®®à®°": 6350,
      "Ġà®īà®£à®°à®²": 6351,
      "à®īà®²à®°": 6352,
      "Ġ1824": 6353,
      "Ġ1835": 6354,
      "atal": 6355,
      "ĠPaul": 6356,
      "ĠAM": 6357,
      "ĠIEEE": 6358,
      "à®ĩà®°à®¯": 6359,
      "ĠNorth": 6360,
      "Ġ252": 6361,
      "ĠEp": 6362,
      "288": 6363,
      "268": 6364,
      "unt": 6365,
      "272": 6366,
      "à®±à®µà®±à®®": 6367,
      "332": 6368,
      "347": 6369,
      "Ġman": 6370,
      "Ġno": 6371,
      "eck": 6372,
      "Ġà¤¸": 6373,
      "ĠAng": 6374,
      "Ð¾Ð²": 6375,
      "ĠDelhi": 6376,
      "540": 6377,
      "Battle": 6378,
      "Fl": 6379,
      "vers": 6380,
      "Î¸": 6381,
      "à®¤à®ķà®²": 6382,
      "à®°à®ĥà®ª": 6383,
      "à®ªà®©à®¤": 6384,
      "à®¯à®´à®±": 6385,
      "Ġà®²à®ŀ": 6386,
      "à®ŀà®®": 6387,
      "à®±à®©à®±": 6388,
      "Ġ337": 6389,
      "Ġ399": 6390,
      "à¯į:-": 6391,
      "Ġ1832": 6392,
      "1851": 6393,
      "à®®à®£à®°à®²": 6394,
      "Ġà®ķà®´à®ķà®ª": 6395,
      "ĠTr": 6396,
      "Ġà®ķà®®à®´": 6397,
      "ĠNO": 6398,
      "ĠDes": 6399,
      "303": 6400,
      "246": 6401,
      "Ġ253": 6402,
      "ĠLim": 6403,
      "ĠFe": 6404,
      "Ġ290": 6405,
      "Ġdi": 6406,
      "390": 6407,
      "344": 6408,
      "654": 6409,
      "777": 6410,
      "University": 6411,
      "Î¿ÏĤ": 6412,
      "ĠCommun": 6413,
      "ĠTime": 6414,
      "ĠGeorge": 6415,
      "soft": 6416,
      "à®ĩà®³à®µà®°à®ļ": 6417,
      "590": 6418,
      "950": 6419,
      "BBC": 6420,
      "MM": 6421,
      "Ġthumb": 6422,
      "à®¤à®ļà®°à®¸": 6423,
      "Ġà®ļà®ĥà®ª": 6424,
      "à¯ĭ(": 6425,
      "à®Ļà®³": 6426,
      "à¯į.;": 6427,
      "005": 6428,
      "Ġà®ħà®®à®°à®°": 6429,
      "Ġà®īà®°à®²": 6430,
      "à®·à®©à®°": 6431,
      "Ġ336": 6432,
      "Ġ410": 6433,
      "Ġ1821": 6434,
      "ality": 6435,
      "1854": 6436,
      "à®ıà®¯": 6437,
      "1799": 6438,
      "ĠBer": 6439,
      "249": 6440,
      "ĠVI": 6441,
      "Ġinter": 6442,
      "488": 6443,
      "ody": 6444,
      "444": 6445,
      "Ġele": 6446,
      "ĠExpress": 6447,
      "ennai": 6448,
      "ĠBlack": 6449,
      "ĠPublishing": 6450,
      "sych": 6451,
      "Ġà®ķà®©à®°à®ķ": 6452,
      "680": 6453,
      "BR": 6454,
      "DS": 6455,
      "Mel": 6456,
      "Rep": 6457,
      "SE": 6458,
      "for": 6459,
      "file": 6460,
      "gn": 6461,
      "oS": 6462,
      "oul": 6463,
      "rat": 6464,
      "sec": 6465,
      "ËĪ": 6466,
      "Ġà®ķà®ªà®Ł": 6467,
      "à®ĩà®Łà®°": 6468,
      "Ġà®īà®³à®°": 6469,
      "à®¤à®°à®ķà®¤": 6470,
      "à®İà®µà®°": 6471,
      "Ġ326": 6472,
      "à®°à®ªà®²à®Ļ": 6473,
      "Ġ1838": 6474,
      "Ġ950": 6475,
      "ĠSI": 6476,
      "ĠAk": 6477,
      "à®¾...": 6478,
      "Ġ273": 6479,
      "289": 6480,
      "274": 6481,
      "Ġ298": 6482,
      "Ġà®ªà®¯à®£à®ļ": 6483,
      "istan": 6484,
      "395": 6485,
      "osophy": 6486,
      "Ġnumber": 6487,
      "Ġà®ķà®µà®©à®ķ": 6488,
      "à·ı": 6489,
      "ICT": 6490,
      "Ġclass": 6491,
      "orical": 6492,
      "My": 6493,
      "Michael": 6494,
      "gar": 6495,
      "|\"": 6496,
      "à®®à®²à®®": 6497,
      "à®²à®µà®®": 6498,
      "à¯Ī+": 6499,
      "Ġà®Ĩà®¤à®®": 6500,
      "à®·à®£à®®": 6501,
      "Ġà®®à®©à®¨à®²": 6502,
      "à®ļà®²à®Ł": 6503,
      "ĠCorpor": 6504,
      "à®ĩà®¤à®¯à®®": 6505,
      "302": 6506,
      "ĠHuman": 6507,
      "Ġà®¨à®ķà®°à®®à®¯à®®": 6508,
      "258": 6509,
      "à¯ģ\")": 6510,
      "akkam": 6511,
      "-----": 6512,
      "Ġappear": 6513,
      "WW": 6514,
      "à®µà®¹": 6515,
      "Ġà®Ĩà®µà®¤à®±": 6516,
      "Ġà®µà®°à®ļ": 6517,
      "à®ķà®µà®Ł": 6518,
      "à®ķà®´à®µ": 6519,
      "à®ķà®©à®²": 6520,
      "à®°à®ļà®²": 6521,
      "Ġ625": 6522,
      "onald": 6523,
      "Ġ1833": 6524,
      "509": 6525,
      "Ġoff": 6526,
      "309": 6527,
      "Ġ303": 6528,
      "Ġ241": 6529,
      "ĠList": 6530,
      "ĠLiter": 6531,
      "ros": 6532,
      "294": 6533,
      "278": 6534,
      "ĠWest": 6535,
      "Ġ295": 6536,
      "403": 6537,
      "404": 6538,
      "405": 6539,
      "Ġfirst": 6540,
      "ĠOff": 6541,
      "455": 6542,
      "osh": 6543,
      "ouis": 6544,
      "other": 6545,
      "United": 6546,
      "ÑģÑĤ": 6547,
      "ĠOrgan": 6548,
      "VA": 6549,
      "ba": 6550,
      "bi": 6551,
      "sw": 6552,
      "Ġà®ķà®¯à®²": 6553,
      "à®£à®±à®²": 6554,
      "Ġà®°à®ļà®µ": 6555,
      "007": 6556,
      "à®¹à®ķ": 6557,
      "1845": 6558,
      "à®Ĵà®®": 6559,
      "Ġà®īà®²à®ķà®¨": 6560,
      "à¯ģ):": 6561,
      "Ġà®µà®³à®¨": 6562,
      "à®Ĳà®©": 6563,
      "ĠNAD": 6564,
      "306": 6565,
      "251": 6566,
      "Ġ272": 6567,
      "263": 6568,
      "277": 6569,
      "ĠWe": 6570,
      "Ġ296": 6571,
      "Ġdo": 6572,
      "376": 6573,
      "642": 6574,
      "Ġ386": 6575,
      "Ġ379": 6576,
      "atha": 6577,
      "mann": 6578,
      "Ġà®ļà®°à®µà®£à®ª": 6579,
      "Ġâī¤": 6580,
      "ĠPolit": 6581,
      "810": 6582,
      "960": 6583,
      "CW": 6584,
      "DI": 6585,
      "MT": 6586,
      "Ġam": 6587,
      "à®¸à®ª": 6588,
      "Ġà®ķà®²à®µà®°": 6589,
      "à®Ĩà®Łà®®": 6590,
      "à®ķà®µà®³": 6591,
      "Ġ367": 6592,
      "Ġà®ļà®®à®¤à®°": 6593,
      "Ġà®ļà®°à®µà®£": 6594,
      "à®ļà®²à®ªà®¤": 6595,
      "Ġ999": 6596,
      "ĠDi": 6597,
      "asc": 6598,
      "Ġ304": 6599,
      "Ġ249": 6600,
      "roph": 6601,
      "à®Ĭà®®": 6602,
      "283": 6603,
      "ema": 6604,
      "ĠKh": 6605,
      "ago": 6606,
      "irt": 6607,
      "ĠInformation": 6608,
      "ota": 6609,
      "Ġmon": 6610,
      "Ġhistory": 6611,
      "obin": 6612,
      "ector": 6613,
      "isease": 6614,
      "×Ļ×": 6615,
      "214": 6616,
      "567": 6617,
      "can": 6618,
      "name": 6619,
      "Ïħ": 6620,
      "à®ªà®ķà®°à®®": 6621,
      "à®µà®ªà®ķ": 6622,
      "Ġà®®à®Łà®ª": 6623,
      "Ġà®µà®¤à®®": 6624,
      "Ġà®µà®¯à®¨": 6625,
      "Ġà®Łà®¸": 6626,
      "à®ħà®±à®¨": 6627,
      "Ġà®ķà®°à®©": 6628,
      "Ġ333": 6629,
      "Ġ378": 6630,
      "Ġ385": 6631,
      "Ġà®ªà®¯à®©à®³": 6632,
      "Ġà®ĩà®©à®ļ": 6633,
      "Ġà®ĩà®Łà®Ĵà®¤": 6634,
      "ĠSAP": 6635,
      "Ġ1796": 6636,
      "à®±à®µà®´": 6637,
      "à®µà®£à®Ļ": 6638,
      "à®Ĳà®ı": 6639,
      "Ġà®ĥà®ªà®µ": 6640,
      "ĠMa": 6641,
      "Ġà®īà®¤à®ķà®®à®£": 6642,
      "ĠBD": 6643,
      "ĠBra": 6644,
      "ĠBudd": 6645,
      "Ġpages": 6646,
      "oma": 6647,
      "Ġ254": 6648,
      "Ġ307": 6649,
      "Ġ308": 6650,
      "ĠLibr": 6651,
      "293": 6652,
      "604": 6653,
      "à®ªà®¯à®£à®Ļ": 6654,
      "Ġà®ªà®°à®®à®¹à®®": 6655,
      "ĠUnited": 6656,
      "rade": 6657,
      "ĠAccessed": 6658,
      "ĠAirport": 6659,
      "ootball": 6660,
      "ĠTaluk": 6661,
      "ĠAfric": 6662,
      "570": 6663,
      "625": 6664,
      "CI": 6665,
      "GE": 6666,
      "HS": 6667,
      "TM": 6668,
      "Web": 6669,
      "ues": 6670,
      "à®®à®ļà®®": 6671,
      "à®®à®°à®£": 6672,
      "à®²à®µà®Ł": 6673,
      "à¯ĩ(": 6674,
      "Ġà®ĩà®Łà®²": 6675,
      "Ġà®ĩà®°à®ļà®µ": 6676,
      "Ġà®Łà®¯à®²": 6677,
      "à®°à®¤à®ļ": 6678,
      "Ġ343": 6679,
      "Ġà®¤à®²à®ļ": 6680,
      "à¯Ī...": 6681,
      "ino": 6682,
      "ĠCricket": 6683,
      "Ġà®ĵà®°à®²à®ķ": 6684,
      "à®ıà®İà®®": 6685,
      "icine": 6686,
      "eless": 6687,
      "ĠFound": 6688,
      "358": 6689,
      "647": 6690,
      "Ġà®µà®Łà®®à®¤": 6691,
      "Ġà®ħà®µà®ļà®°à®®": 6692,
      "ube": 6693,
      "anta": 6694,
      "à´¿": 6695,
      "ika": 6696,
      "Ġãģ": 6697,
      "413": 6698,
      "560": 6699,
      "620": 6700,
      "How": 6701,
      "Mo": 6702,
      "font": 6703,
      "ji": 6704,
      "ness": 6705,
      "uild": 6706,
      "ware": 6707,
      "à®ĩà®¯à®©": 6708,
      "Ġà®µà®°à®£": 6709,
      "Ġà®ħà®°à®µà®£": 6710,
      "Ġà®ķà®°à®ª": 6711,
      "Ġ395": 6712,
      "à®°à®ªà®²à®¤": 6713,
      "Ġ1836": 6714,
      "Ġ1834": 6715,
      "Ġ1806": 6716,
      "1849": 6717,
      "1852": 6718,
      "orph": 6719,
      "à®Łà®µà®Ļ": 6720,
      "259": 6721,
      "à®Ĭà®©": 6722,
      "292": 6723,
      "agement": 6724,
      "Ġsin": 6725,
      "Ġder": 6726,
      "352": 6727,
      "349": 6728,
      "Ġ3500": 6729,
      "à®¾?\"": 6730,
      "à¯ģ',": 6731,
      "Ġà¤ª": 6732,
      "ĠAdminist": 6733,
      "ype": 6734,
      "ĠHeritage": 6735,
      "322": 6736,
      "321": 6737,
      "Ca": 6738,
      "EF": 6739,
      "EP": 6740,
      "ban": 6741,
      "bit": 6742,
      "eam": 6743,
      "yt": 6744,
      "Ġits": 6745,
      "à®¿=": 6746,
      "à®ķà®ķà®³": 6747,
      "à®µà®£à®®": 6748,
      "Ġà®¤à®µà®´": 6749,
      "Ġà®Ĩà®²à®¤": 6750,
      "à®ĩà®ŀ": 6751,
      "006": 6752,
      "à®²à®¤à®®": 6753,
      "Ġà®īà®°à®ļ": 6754,
      "Ġ1804": 6755,
      "inese": 6756,
      "1840": 6757,
      "1846": 6758,
      "1856": 6759,
      "ĠCenter": 6760,
      "ĠSal": 6761,
      "ĠPort": 6762,
      "ĠATP": 6763,
      "ĠTrans": 6764,
      "ayer": 6765,
      "ĠEurope": 6766,
      "use": 6767,
      "adio": 6768,
      "334": 6769,
      "342": 6770,
      "Ġ356": 6771,
      "ogen": 6772,
      "787": 6773,
      "ense": 6774,
      "ĠÎĶ": 6775,
      "425": 6776,
      "DAP": 6777,
      "Mc": 6778,
      "Mal": 6779,
      "lim": 6780,
      "}}": 6781,
      "Ø©": 6782,
      "äº": 6783,
      "ï¼": 6784,
      "ĠÛ": 6785,
      "Ġà®¯à®Ł": 6786,
      "à®ķà®®à®²à®®": 6787,
      "à®©à®°à®¤": 6788,
      "Ġ-/": 6789,
      "Ġà®ķà®²à®ļà®ª": 6790,
      "Ġà®ķà®°à®£à®®": 6791,
      "Ġ316": 6792,
      "Ġ311": 6793,
      "Ġ7000": 6794,
      "Ġ613": 6795,
      "arly": 6796,
      "ĠCons": 6797,
      "Ġà®ķà®©à®ķà®°à®¤": 6798,
      "Ġ1792": 6799,
      "ites": 6800,
      "267": 6801,
      "297": 6802,
      "354": 6803,
      "484": 6804,
      "à¯įâĢĿ.": 6805,
      "ever": 6806,
      "aiy": 6807,
      "ipedia": 6808,
      "pert": 6809,
      "eek": 6810,
      "ynast": 6811,
      "ronic": 6812,
      "ĠService": 6813,
      "ĠSNMP": 6814,
      "Ġappearance": 6815,
      "401": 6816,
      "720": 6817,
      "870": 6818,
      "AI": 6819,
      "vest": 6820,
      "ðĳ": 6821,
      "à®°à®µà®ķ": 6822,
      "à®²à®µà®²": 6823,
      "à®ļà®µà®¤": 6824,
      "Ġà®µà®¯à®ª": 6825,
      "Ġà®ĩà®¯à®®": 6826,
      "Ġà®ļà®²à®©": 6827,
      "à®Łà®¤à®¤": 6828,
      "Ġà®ıà®ķà®®": 6829,
      "Ġà®ªà®Łà®ļ": 6830,
      "Ġ331": 6831,
      "à®©à®®à®¯à®®": 6832,
      "Ġà®ħà®µà®¨": 6833,
      "Ġ1823": 6834,
      "ries": 6835,
      "Ġà®ķà®´à®Ļ": 6836,
      "Ġover": 6837,
      "à¤Ń": 6838,
      "ĠHealth": 6839,
      "ĠFirst": 6840,
      "356": 6841,
      "392": 6842,
      "399": 6843,
      "366": 6844,
      "371": 6845,
      "Ġà®ªà®µà®³à®®": 6846,
      "Ġmod": 6847,
      "imon": 6848,
      "Ġgen": 6849,
      "attu": 6850,
      "azine": 6851,
      "ynam": 6852,
      "Art": 6853,
      "313": 6854,
      "768": 6855,
      "Dec": 6856,
      "HO": 6857,
      "UP": 6858,
      "bar": 6859,
      "ger": 6860,
      "à¯§": 6861,
      "à®©à®¯à®©": 6862,
      "Ġà®ķà®¹": 6863,
      "Ġà®ļà®¸": 6864,
      "à®ªà®ķà®Ł": 6865,
      "à®ªà®°à®¤à®¨": 6866,
      "âĢ³": 6867,
      "âĢł": 6868,
      "Ġà®ªà®²à®ļ": 6869,
      "Ġà®ľà®¯": 6870,
      "Ġ315": 6871,
      "Ġ314": 6872,
      "Ġ\"\"": 6873,
      "onment": 6874,
      "à®®à®°à®£à®®": 6875,
      "à®°à®ķà®£à®®": 6876,
      "à®ªà®£à®ķ": 6877,
      "itation": 6878,
      "ĠNations": 6879,
      "ĠGreen": 6880,
      "Ġ251": 6881,
      "Ġ281": 6882,
      "Ġ285": 6883,
      "295": 6884,
      "Ġcent": 6885,
      "702": 6886,
      "385": 6887,
      "386": 6888,
      "389": 6889,
      "à®īà®¯à®°à®®": 6890,
      "à®ħà®´à®ķà®°": 6891,
      "Thomas": 6892,
      "echan": 6893,
      "Encyclop": 6894,
      "MDCC": 6895,
      "ĠMadras": 6896,
      "422": 6897,
      "495": 6898,
      "740": 6899,
      "Ka": 6900,
      "PN": 6901,
      "Pal": 6902,
      "Peter": 6903,
      "ied": 6904,
      "mi": 6905,
      "Î³": 6906,
      "à®³à®¯": 6907,
      "Ġà®ķà®³à®ķ": 6908,
      "à¯į,(": 6909,
      "à®¯à®®à®£": 6910,
      "à®ħà®ķà®ļ": 6911,
      "Ġà®ĩà®²à®ŀ": 6912,
      "Ġ327": 6913,
      "Ġ425": 6914,
      "anet": 6915,
      "à®°à®ļà®µ": 6916,
      "Ġ1819": 6917,
      "Ġ1817": 6918,
      "207": 6919,
      "ĠSocial": 6920,
      "Ġ1550": 6921,
      "ĠMer": 6922,
      "ĠIBM": 6923,
      "itor": 6924,
      "ison": 6925,
      "ela": 6926,
      "ĠHow": 6927,
      "asa": 6928,
      "asan": 6929,
      "ĠLeg": 6930,
      "ĠWindows": 6931,
      "Ġfact": 6932,
      "907": 6933,
      "ĠUnions": 6934,
      "Ġkn": 6935,
      "ĠAnn": 6936,
      "'''": 6937,
      "ternet": 6938,
      "ampatti": 6939,
      "stitution": 6940,
      "ÑģÐº": 6941,
      "ification": 6942,
      "rime": 6943,
      "ĠCorporation": 6944,
      "Be": 6945,
      "FL": 6946,
      "History": 6947,
      "PO": 6948,
      "RO": 6949,
      "br": 6950,
      "Äĵ": 6951,
      "à¯«": 6952,
      "à®³à®¤à®©": 6953,
      "à®ļà®¯à®ķ": 6954,
      "à®Ļà®©à®®": 6955,
      "à®ħà®ķà®ª": 6956,
      "à®ķà®²à®Ł": 6957,
      "Ġà®Ĳà®²": 6958,
      "Ġà®¤à®©à®ª": 6959,
      "Ġà®®à®°à®£à®Ļ": 6960,
      "Ġ737": 6961,
      "Ġà®ħà®ªà®ķà®°": 6962,
      "1818": 6963,
      "Ġà®ķà®´à®©": 6964,
      "ila": 6965,
      "à¤¡": 6966,
      "307": 6967,
      "Ġà®¨à®©à®µ": 6968,
      "ĠFilm": 6969,
      "à®ĥà®Ł": 6970,
      "355": 6971,
      "398": 6972,
      "367": 6973,
      "990": 6974,
      "Ġint": 6975,
      "483": 6976,
      "Ġ352": 6977,
      "à®¿://": 6978,
      "449": 6979,
      "All": 6980,
      "ĠGuide": 6981,
      "ĠGeneral": 6982,
      "icrosoft": 6983,
      "ĠHTML": 6984,
      "050": 6985,
      "030": 6986,
      "670": 6987,
      "714": 6988,
      "BO": 6989,
      "Kh": 6990,
      "Sm": 6991,
      "Sub": 6992,
      "[[": 6993,
      "count": 6994,
      "di": 6995,
      "eel": 6996,
      "oa": 6997,
      "yr": 6998,
      "Ġ^": 6999,
      "à®¾).": 7000,
      "à®©à®Łà®ª": 7001,
      "à®¯à®¤à®²": 7002,
      "à®¨à®²à®ª": 7003,
      "Ġà®µà®²à®Ļ": 7004,
      "Ġà®¨à®¸": 7005,
      "à®¤à®²à®ļ": 7006,
      "à®ĩà®ħà®¤": 7007,
      "à®¯à®°à®Ł": 7008,
      "Ġ->": 7009,
      "Ġ364": 7010,
      "Ġ1826": 7011,
      "alur": 7012,
      "Ġà®ķà®©à®ķà®ļ": 7013,
      "ĠPost": 7014,
      "itect": 7015,
      "à®¯à®ļà®ķ": 7016,
      "ason": 7017,
      "ĠLab": 7018,
      "Ġ287": 7019,
      "271": 7020,
      "Ġ292": 7021,
      "Ġfunction": 7022,
      "Ġsee": 7023,
      "368": 7024,
      "346": 7025,
      "485": 7026,
      "676": 7027,
      "442": 7028,
      "474": 7029,
      "iger": 7030,
      "ĠThomas": 7031,
      "à·Ķ": 7032,
      "ette": 7033,
      "Ġà®µà®Łà®ªà®´à®©": 7034,
      "Ġá¼": 7035,
      "ĠSmith": 7036,
      "045": 7037,
      "510": 7038,
      "711": 7039,
      "Debut": 7040,
      "Is": 7041,
      "UK": 7042,
      "aq": 7043,
      "fred": 7044,
      "Ìģ": 7045,
      "ÏĮ": 7046,
      "à®¤à®µà®©à®®": 7047,
      "à®°à®ļà®°": 7048,
      "à®ķà®³à®²": 7049,
      "Ġà®ħà®ļà®¤": 7050,
      "à¯Ģà¯į": 7051,
      "à®ħà®¹": 7052,
      "Ġà®®à®ķà®µ": 7053,
      "à®Ĩà®²à®©": 7054,
      "Ġ401": 7055,
      "Ġ470": 7056,
      "Ġà®¹à®¯": 7057,
      "alysis": 7058,
      "à®²à®µà®³": 7059,
      "ĠSi": 7060,
      "à®µà®¨à®²": 7061,
      "ĠIll": 7062,
      "ĠGaz": 7063,
      "Ġà®®à®°à®ªà®©": 7064,
      "ĠHall": 7065,
      "andhi": 7066,
      "asam": 7067,
      "248": 7068,
      "ĠEr": 7069,
      "261": 7070,
      "364": 7071,
      "Ġ406": 7072,
      "Ġmm": 7073,
      "Ġ353": 7074,
      "Ġ354": 7075,
      "558": 7076,
      "576": 7077,
      "Ġ372": 7078,
      "Ġ376": 7079,
      "lymp": 7080,
      "Arch": 7081,
      "acter": 7082,
      "ĠNTSC": 7083,
      "ĠHandbook": 7084,
      "At": 7085,
      "Elect": 7086,
      "ION": 7087,
      "])": 7088,
      "een": 7089,
      "gy": 7090,
      "Ð¿": 7091,
      "ÑĮ": 7092,
      "à®³à®µà®©": 7093,
      "Ġà®ķà®°à®¤": 7094,
      "à®£à®¯à®ļ": 7095,
      "Ġà®¨à®ķà®®": 7096,
      "à®ħà®¯à®²": 7097,
      "Ġ446": 7098,
      "à®īà®µ": 7099,
      "inter": 7100,
      "à®ķà®£à®ļ": 7101,
      "Ġà®µà®³à®°à®¤": 7102,
      "ĠPower": 7103,
      "Ġ1788": 7104,
      "ĠIC": 7105,
      "Ġà®ķà®Łà®²à®Ł": 7106,
      "ĠRef": 7107,
      "ĠDem": 7108,
      "add": 7109,
      "Ġ276": 7110,
      "raft": 7111,
      "394": 7112,
      "378": 7113,
      "acy": 7114,
      "905": 7115,
      "aking": 7116,
      "igital": 7117,
      "allur": 7118,
      "à´°": 7119,
      "cience": 7120,
      "à²°": 7121,
      "à²¾": 7122,
      "oria": 7123,
      "ylan": 7124,
      "opher": 7125,
      "ĠKingdom": 7126,
      "info": 7127,
      "315": 7128,
      "980": 7129,
      "action": 7130,
      "cul": 7131,
      "zh": 7132,
      "Ø¹": 7133,
      "à®ļà®ĥà®ª": 7134,
      "Ġà®Ĩà®ļà®©à®Ļ": 7135,
      "Ġà®µà®°à®©": 7136,
      "Ġà®µà®°à®Ļ": 7137,
      "à®Ĩà®²à®¤": 7138,
      "Ġà®ħà®²à®Ł": 7139,
      "Ġà®ľà®¯à®°": 7140,
      "Ġà®ľà®²à®¨": 7141,
      "Ġà®Ĭà®ķà®Ļ": 7142,
      "à®Łà®²à®Ł": 7143,
      "à®İà®Łà®ª": 7144,
      "Ġ341": 7145,
      "Ġà®ªà®°à®µà®¤": 7146,
      "à¯Ī..": 7147,
      "à®ªà®©à®¨": 7148,
      "Ġ1829": 7149,
      "Ġ1827": 7150,
      "Ġ1802": 7151,
      "Ġà®ļà®°à®³à®®": 7152,
      "502": 7153,
      "ĠCivil": 7154,
      "ĠSurvey": 7155,
      "à®Ĳà®ľ": 7156,
      "leg": 7157,
      "ĠBob": 7158,
      "urr": 7159,
      "ĠDylan": 7160,
      "Ġ267": 7161,
      "298": 7162,
      "388": 7163,
      "661": 7164,
      "à®ļà®¯à®¨à®ķà®°": 7165,
      "ĠØ¨": 7166,
      "ĠModern": 7167,
      "ĠMalaysia": 7168,
      "040": 7169,
      "323": 7170,
      "327": 7171,
      "PD": 7172,
      "SF": 7173,
      "TL": 7174,
      "aa": 7175,
      "aut": 7176,
      "Ñĭ": 7177,
      "à¬": 7178,
      "à¯ģâĢĶ": 7179,
      "à®ķà®µà®°à®®": 7180,
      "à®µà®ķà®µ": 7181,
      "à®¨à®µà®°": 7182,
      "Ġà®ļà®ķà®°": 7183,
      "à®¤à®²à®µ": 7184,
      "à¯ģ,\"": 7185,
      "Ġà®ıà®İà®ļ": 7186,
      "à®¤à®°à®µà®Ł": 7187,
      "Ġ348": 7188,
      "Ġ460": 7189,
      "Ġà®®à®°à®µ": 7190,
      "à®¹à®Ļ": 7191,
      "1838": 7192,
      "ĠSat": 7193,
      "ĠSee": 7194,
      "ĠAustral": 7195,
      "Ġà®ķà®µà®ļà®¤": 7196,
      "Ġ1770": 7197,
      "stant": 7198,
      "Ġà®īà®¤à®µà®ķ": 7199,
      "ĠMichael": 7200,
      "ĠTH": 7201,
      "Ġà®ħà®³à®µà®±": 7202,
      "Ġpar": 7203,
      "raham": 7204,
      "ivity": 7205,
      "Ġ403": 7206,
      "irus": 7207,
      "Ġà®¤à®µà®±à®µ": 7208,
      "osc": 7209,
      "à®ĩà®®à®¯à®®à®²": 7210,
      "ough": 7211,
      "arbon": 7212,
      "vironment": 7213,
      "311": 7214,
      "326": 7215,
      "415": 7216,
      "718": 7217,
      "730": 7218,
      "770": 7219,
      "Dev": 7220,
      "Her": 7221,
      "VII": 7222,
      "mad": 7223,
      "ua": 7224,
      "åħ": 7225,
      "Ġest": 7226,
      "Ġà®ĩà®³à®ķ": 7227,
      "009": 7228,
      "à®ħà®©à®²": 7229,
      "Ġà®ĩà®²à®µà®Ļ": 7230,
      "à®¿.)": 7231,
      "à®ļà®®à®Ļ": 7232,
      "Ġ777": 7233,
      "onn": 7234,
      "Ġà®ķà®©à®¨": 7235,
      "ĠSing": 7236,
      "ĠSea": 7237,
      "ĠPers": 7238,
      "ĠPeter": 7239,
      "ĠMur": 7240,
      "1798": 7241,
      "Ġà®ķà®®à®²à®®": 7242,
      "ĠLanguage": 7243,
      "à®Ĭà®ķ": 7244,
      "ĠFort": 7245,
      "279": 7246,
      "ague": 7247,
      "997": 7248,
      "753": 7249,
      "679": 7250,
      "644": 7251,
      "Ġà®¨à®°à®ķà®®": 7252,
      "astri": 7253,
      "Ġform": 7254,
      "Ann": 7255,
      "Int": 7256,
      "à¶»": 7257,
      "ories": 7258,
      "xxx": 7259,
      "ference": 7260,
      "ĠLibrary": 7261,
      "+)": 7262,
      "219": 7263,
      "317": 7264,
      "614": 7265,
      "611": 7266,
      "Pat": 7267,
      "Ram": 7268,
      "ek": 7269,
      "field": 7270,
      "men": 7271,
      "á¸": 7272,
      "à®ķà®¤à®©": 7273,
      "à®°à®µà®Ł": 7274,
      "à®ļà®¯à®ª": 7275,
      "Ġà®ļà®°à®®": 7276,
      "Ġà®°à®ĥà®ª": 7277,
      "Ġ313": 7278,
      "Ġ388": 7279,
      "Ġ393": 7280,
      "à®°à®ļà®µà®¤": 7281,
      "à®ļà®¤à®¨": 7282,
      "ĠCu": 7283,
      "ĠSab": 7284,
      "ĠPo": 7285,
      "Ġà®µà®³à®µà®©": 7286,
      "ĠMel": 7287,
      "à®ªà®£à®µ": 7288,
      "ĠBen": 7289,
      "à®İà®©à®ª": 7290,
      "à¤ļ": 7291,
      "olk": 7292,
      "ĠHa": 7293,
      "Ġ259": 7294,
      "Ġ309": 7295,
      "à®Īà®´à®®": 7296,
      "Ġ277": 7297,
      "Ġ297": 7298,
      "rah": 7299,
      "ĠKumar": 7300,
      "agam": 7301,
      "387": 7302,
      "048": 7303,
      "ocal": 7304,
      "491": 7305,
      "ĠXX": 7306,
      "ultural": 7307,
      "SPF": 7308,
      "ethod": 7309,
      "English": 7310,
      "')": 7311,
      "314": 7312,
      "470": 7313,
      "501": 7314,
      "517": 7315,
      "EX": 7316,
      "Ep": 7317,
      "Mart": 7318,
      "RA": 7319,
      "den": 7320,
      "win": 7321,
      "yer": 7322,
      "à®®à®ªà®¤": 7323,
      "à®²à®¹": 7324,
      "à®²à®ļà®®à®¯à®®": 7325,
      "à®µà®ļà®ª": 7326,
      "Ġà®ļà®µà®°": 7327,
      "Ġà®īà®ªà®ª": 7328,
      "à¯ģ.:": 7329,
      "Ġà®Łà®µà®°": 7330,
      "Ġà®®à®±à®µà®©": 7331,
      "Ġà®ĵà®®à®°": 7332,
      "à®ļà®®à®²": 7333,
      "à¯Ī.)": 7334,
      "Ġ747": 7335,
      "Ġ1811": 7336,
      "à®ķà®£à®°": 7337,
      "arai": 7338,
      "ĠCr": 7339,
      "ĠSC": 7340,
      "ĠSn": 7341,
      "Ġ1783": 7342,
      "ĠMat": 7343,
      "ĠDepartment": 7344,
      "isch": 7345,
      "à®Ĭà®ļ": 7346,
      "402": 7347,
      "ĠKar": 7348,
      "ĠVill": 7349,
      "idth": 7350,
      "348": 7351,
      "656": 7352,
      "678": 7353,
      "Ġ384": 7354,
      "ynasty": 7355,
      "318": 7356,
      "568": 7357,
      "601": 7358,
      "790": 7359,
      "Kam": 7360,
      "RL": 7361,
      "Sil": 7362,
      "pe": 7363,
      "Ð¼": 7364,
      "áĥ": 7365,
      "à®²à®±à®®": 7366,
      "Ġà®®à®²à®¤": 7367,
      "Ġà®¤à®µà®ļ": 7368,
      "Ġà®¯à®©": 7369,
      "à®¯à®°à®³": 7370,
      "à®ħà®±à®ª": 7371,
      "à®Ĩà®²à®ª": 7372,
      "Ġ318": 7373,
      "Ġ428": 7374,
      "Ġà®®à®°à®Ł": 7375,
      "à®ªà®©à®ª": 7376,
      "Ġ1809": 7377,
      "1847": 7378,
      "505": 7379,
      "ĠAPI": 7380,
      "ĠAhm": 7381,
      "ston": 7382,
      "1795": 7383,
      "1796": 7384,
      "ĠTest": 7385,
      "ĠRail": 7386,
      "olf": 7387,
      "ĠHol": 7388,
      "Ġ257": 7389,
      "Ġ302": 7390,
      "à®ľà®©à®¨": 7391,
      "à®ĵà®Ļ": 7392,
      "adium": 7393,
      "Ġ283": 7394,
      "ĠWil": 7395,
      "Ġ299": 7396,
      "605": 7397,
      "ĠUp": 7398,
      "459": 7399,
      "973": 7400,
      "ĠTheory": 7401,
      "Ġ383": 7402,
      "athur": 7403,
      "illai": 7404,
      "Ġà¤ķ": 7405,
      "ongol": 7406,
      "à®Ĩà®µà®£à®ª": 7407,
      "iii": 7408,
      "Ġâī¥": 7409,
      "XXX": 7410,
      "ĠNTFS": 7411,
      "ĠPrize": 7412,
      "024": 7413,
      "1200": 7414,
      "431": 7415,
      "890": 7416,
      "Cal": 7417,
      "East": 7418,
      "EFA": 7419,
      "Fe": 7420,
      "GN": 7421,
      "HD": 7422,
      "MC": 7423,
      "Min": 7424,
      "Mag": 7425,
      "Reg": 7426,
      "vu": 7427,
      "ynd": 7428,
      "Ïī": 7429,
      "à®°à®³à®ķ": 7430,
      "à®®à®ķà®ķ": 7431,
      "Ġà®ªà®¯à®ª": 7432,
      "Ġà®ªà®ľà®©": 7433,
      "à®ļà®ķà®²": 7434,
      "à®£à®°à®¤": 7435,
      "à®£à®°à®ļ": 7436,
      "Ġà®ļà®²à®Ļ": 7437,
      "Ġà®¨à®µà®¤": 7438,
      "Ġà®īà®ªà®ķ": 7439,
      "008": 7440,
      "à®ħà®²à®©": 7441,
      "Ġà®ľà®¤": 7442,
      "Ġà®ħà®©à®¸": 7443,
      "Ġ321": 7444,
      "Ġ339": 7445,
      "Ġ368": 7446,
      "à¯į)\"": 7447,
      "Ġà®®à®©à®®à®ķ": 7448,
      "anam": 7449,
      "Ġà®īà®£à®°à®®": 7450,
      "Ġà®®à®°à®¨": 7451,
      "ination": 7452,
      "ĠCong": 7453,
      "ĠPre": 7454,
      "Ġ1791": 7455,
      "ĠTele": 7456,
      "ĠBal": 7457,
      "à®´à®°à®ļà®©": 7458,
      "Ġà®·à®®": 7459,
      "ĠLtd": 7460,
      "281": 7461,
      "351": 7462,
      "451": 7463,
      "653": 7464,
      "476": 7465,
      "Ġ381": 7466,
      "Ġ362": 7467,
      "ĠXML": 7468,
      "à®Ĩà®²à®¯": 7469,
      "ensis": 7470,
      "Ġrel": 7471,
      "Ġà¤®": 7472,
      "rome": 7473,
      "Ġà®ªà®°à®¤à®µà®°": 7474,
      "ÐµÐ½": 7475,
      "aniel": 7476,
      "ĠEncyclopÃ¦dia": 7477,
      "ĠBritish": 7478,
      "ĠMartin": 7479,
      "026": 7480,
      "530": 7481,
      "880": 7482,
      "Green": 7483,
      "No": 7484,
      "val": 7485,
      "vis": 7486,
      "ÉĻ": 7487,
      "Ùģ": 7488,
      "à¯ģ*": 7489,
      "à¯ģâĢĵ": 7490,
      "à®Łà®¯à®ķ": 7491,
      "à®ªà®¯à®Ļ": 7492,
      "Ġà®ªà®µà®³": 7493,
      "Ġà®ķà®³à®©": 7494,
      "à®ļà®ļà®°": 7495,
      "Ġà®¤à®°à®£": 7496,
      "Ġà®īà®©à®¤": 7497,
      "à®ķà®µà®ļà®®": 7498,
      "à®Łà®²à®ļ": 7499,
      "Ġà®¨à®ķà®°à®ļ": 7500,
      "à®³à®®à®¯à®®": 7501,
      "Ġà®īà®£à®µà®°": 7502,
      "Ġ1828": 7503,
      "Ġà®ħà®ªà®¯": 7504,
      "Ġà®īà®¯à®°à®Ļ": 7505,
      "1830": 7506,
      "1821": 7507,
      "Ġ1707": 7508,
      "à®Ĳà®µ": 7509,
      "ĠMo": 7510,
      "ĠMet": 7511,
      "Ġout": 7512,
      "ĠGold": 7513,
      "ĠDiv": 7514,
      "ĠHD": 7515,
      "asi": 7516,
      "242": 7517,
      "Ġ284": 7518,
      "Ġ10000": 7519,
      "408": 7520,
      "609": 7521,
      "ĠKal": 7522,
      "ides": 7523,
      "Ġ402": 7524,
      "903": 7525,
      "otal": 7526,
      "657": 7527,
      "985": 7528,
      "446": 7529,
      "684": 7530,
      "à¥Ĥ": 7531,
      "---": 7532,
      "Ġretrieved": 7533,
      "ĠArts": 7534,
      "à¶ļ": 7535,
      "eriod": 7536,
      "Ġà®µà®ļà®©à®ķà®°": 7537,
      "ĠCentre": 7538,
      ".[": 7539,
      ".),": 7540,
      ".).": 7541,
      "021": 7542,
      "319": 7543,
      "535": 7544,
      "AY": 7545,
      "Amer": 7546,
      "Henry": 7547,
      "Jan": 7548,
      "ME": 7549,
      "Operation": 7550,
      "PT": 7551,
      "Rh": 7552,
      "Res": 7553,
      "da": 7554,
      "las": 7555,
      "oft": 7556,
      "patti": 7557,
      "à«": 7558,
      "âĶ": 7559,
      "à®°à®ķà®£": 7560,
      "à®®à®³à®®": 7561,
      "à®³à®°à®®": 7562,
      "à®¨à®ķà®²": 7563,
      "Ġà®İà®®à®°": 7564,
      "Ġà®ıà®®à®©": 7565,
      "à®¯à®©à®ª": 7566,
      "Ġà®ľà®ķà®¨": 7567,
      "Ġ396": 7568,
      "Ġà®ħà®ķà®Ļ": 7569,
      "ried": 7570,
      "1819": 7571,
      "1844": 7572,
      "ĠPL": 7573,
      "ĠPeople": 7574,
      "ĠASP": 7575,
      "Ġà®ļà®ķà®²à®¤": 7576,
      "Ġ1782": 7577,
      "ĠRichard": 7578,
      "ĠDis": 7579,
      "ili": 7580,
      "omic": 7581,
      "Ġ306": 7582,
      "1952100": 7583,
      "à®ĵà®µà®°": 7584,
      "Ġà®¤à®ķà®©à®®": 7585,
      "ĠFrom": 7586,
      "Ġ271": 7587,
      "282": 7588,
      "Ġ286": 7589,
      "409": 7590,
      "602": 7591,
      "752": 7592,
      "759": 7593,
      "Ġmet": 7594,
      "651": 7595,
      "955": 7596,
      "672": 7597,
      "641": 7598,
      "akh": 7599,
      "774": 7600,
      "025": 7601,
      "737": 7602,
      "930": 7603,
      "DNA": 7604,
      "Jul": 7605,
      "RC": 7606,
      "Ñĩ": 7607,
      "à®¤à®ļà®®": 7608,
      "à®Łà®ļà®¨": 7609,
      "Ġà®µà®©à®Ļ": 7610,
      "à¯į,,": 7611,
      "à¯ģ.;": 7612,
      "à®°à®®à®µ": 7613,
      "à®¤à®°à®£à®®": 7614,
      "à®Ĩà®ªà®¤": 7615,
      "Ġà®ĵà®µà®©": 7616,
      "Ġà®ĵà®°à®£": 7617,
      "à¯į)(": 7618,
      "tha": 7619,
      "à®µà®²à®ķà®ª": 7620,
      "Ġ540": 7621,
      "à®īà®®à®°": 7622,
      "1820": 7623,
      "1825": 7624,
      "1834": 7625,
      "1804": 7626,
      "estern": 7627,
      "ĠCount": 7628,
      "ĠShe": 7629,
      "ĠBa": 7630,
      "urt": 7631,
      "à®ĵà®¤": 7632,
      "adh": 7633,
      "Ġ279": 7634,
      "276": 7635,
      "Ġbook": 7636,
      "iva": 7637,
      "397": 7638,
      "384": 7639,
      "755": 7640,
      "utch": 7641,
      "ĠâĻ": 7642,
      "553": 7643,
      "à®¿',": 7644,
      "Ġlaw": 7645,
      "Ġelect": 7646,
      "à®ĩà®³à®ŀ": 7647,
      "ains": 7648,
      "à¶¸": 7649,
      "lexander": 7650,
      "++": 7651,
      ".:": 7652,
      "080": 7653,
      "324": 7654,
      "575": 7655,
      "799": 7656,
      "Great": 7657,
      "Red": 7658,
      "Val": 7659,
      "elect": 7660,
      "kh": 7661,
      "rest": 7662,
      "âī": 7663,
      "Ġev": 7664,
      "à®ķà®µà®©à®®": 7665,
      "à®¤à®¯à®ķ": 7666,
      "à®¤à®³à®ª": 7667,
      "à®²à®Łà®Ļ": 7668,
      "à®ļà®³à®°": 7669,
      "à®ļà®µà®°à®®": 7670,
      "à®¤à®²à®µà®°à®²": 7671,
      "à®Łà®°à®°": 7672,
      "à®ªà®°à®Ł": 7673,
      "Ġà®ªà®²à®ķà®²": 7674,
      "Ġà®ķà®£à®©": 7675,
      "Ġ317": 7676,
      "Ġ398": 7677,
      "Ġ397": 7678,
      "Ġ366": 7679,
      "à®ļà®®à®¯à®Ļ": 7680,
      "Ġà®Īà®°à®¤": 7681,
      "Ġ412": 7682,
      "à®®à®¤à®ķ": 7683,
      "Ġ1807": 7684,
      "à®ªà®®à®¯à®®": 7685,
      "arc": 7686,
      "1801": 7687,
      "ĠCN": 7688,
      "ĠSW": 7689,
      "ĠSun": 7690,
      "ĠPres": 7691,
      "Ġà®ĥà®ªà®£": 7692,
      "ĠNetwork": 7693,
      "ady": 7694,
      "à®Īà®¤": 7695,
      "roc": 7696,
      "ĠFed": 7697,
      "ential": 7698,
      "Ġ293": 7699,
      "406": 7700,
      "709": 7701,
      "ids": 7702,
      "391": 7703,
      "372": 7704,
      "379": 7705,
      "655": 7706,
      "646": 7707,
      "856": 7708,
      "Ġà®¨à®Łà®©à®ª": 7709,
      "463": 7710,
      "ĠCharles": 7711,
      "ecial": 7712,
      "ĠStatist": 7713,
      "762": 7714,
      "ella": 7715,
      "Ġeffect": 7716,
      "Ġkg": 7717,
      "ĠÂµ": 7718,
      "ISO": 7719,
      "Ġprocess": 7720,
      "ĠAsian": 7721,
      "ĠSecret": 7722,
      "ĠChristian": 7723,
      "Ġà®¤à®ļà®°à®¤à®©": 7724,
      "ĠEngineering": 7725,
      "ĠLimited": 7726,
      "316": 7727,
      "421": 7728,
      "524": 7729,
      "Bal": 7730,
      "DB": 7731,
      "Em": 7732,
      "King": 7733,
      "Mark": 7734,
      "Pa": 7735,
      "uf": 7736,
      "vel": 7737,
      "Î´": 7738,
      "Ð±": 7739,
      "à¯įâĢĺ": 7740,
      "à®¤à®¤à®²": 7741,
      "à®®à®ķà®ª": 7742,
      "Ġà®ķà®©à®¤": 7743,
      "Ġà®īà®´à®ķ": 7744,
      "Ġà®¯à®¯": 7745,
      "Ġà®®à®±à®µ": 7746,
      "à®ĩà®µà®©à®¤": 7747,
      "à®µà®Łà®ķà®°": 7748,
      "Ġ349": 7749,
      "à®³à®µà®Ļ": 7750,
      "Ġà®®à®²à®ļ": 7751,
      "erence": 7752,
      "Ġ1816": 7753,
      "Ġ1805": 7754,
      "à®ªà®µà®°à®¤": 7755,
      "1843": 7756,
      "504": 7757,
      "ĠCulture": 7758,
      "ĠSw": 7759,
      "ĠAsh": 7760,
      "Ġ1758": 7761,
      "ĠMoh": 7762,
      "Ġà®ĩà®®à®¯": 7763,
      "edi": 7764,
      "à¤Ł": 7765,
      "à®Ĭà®´à®²": 7766,
      "ĠFact": 7767,
      "808": 7768,
      "353": 7769,
      "ĠOut": 7770,
      "393": 7771,
      "454": 7772,
      "aps": 7773,
      "à®¿\")": 7774,
      "481": 7775,
      "oda": 7776,
      "479": 7777,
      "Ġ387": 7778,
      "Ġ373": 7779,
      "à´ķ": 7780,
      "obel": 7781,
      "à®ħà®´à®ķà®ª": 7782,
      "cles": 7783,
      "Inter": 7784,
      "ĠUSA": 7785,
      "Ġ0000": 7786,
      "aily": 7787,
      "ĠâĤ¬": 7788,
      "ĠFrancis": 7789,
      "vention": 7790,
      "060": 7791,
      "070": 7792,
      "523": 7793,
      "632": 7794,
      "820": 7795,
      "912": 7796,
      "Ash": 7797,
      "HA": 7798,
      "We": 7799,
      "bol": 7800,
      "sa": 7801,
      "xide": 7802,
      "za": 7803,
      "Î¬": 7804,
      "Ġright": 7805,
      "à¯¨": 7806,
      "à®¾+": 7807,
      "à®¨à®²à®©": 7808,
      "Ġà®µà®³à®©": 7809,
      "à®ĩà®©à®®": 7810,
      "à®ľà®¤à®¨": 7811,
      "à®ľà®¯à®¨": 7812,
      "Ġ394": 7813,
      "Ġà®ħà®£à®Ļ": 7814,
      "Ġà®Īà®¯à®¤": 7815,
      "Ġà®Īà®Łà®©": 7816,
      "Ġ426": 7817,
      "à®°à®ļà®µà®®": 7818,
      "à®®à®¤à®Ļ": 7819,
      "1831": 7820,
      "1853": 7821,
      "507": 7822,
      "ĠCPA": 7823,
      "Ġ1780": 7824,
      "1789": 7825,
      "ĠRet": 7826,
      "ĠGh": 7827,
      "iles": 7828,
      "ĠLand": 7829,
      "Ġà®īà®ªà®µ": 7830,
      "Ġà®īà®ªà®ļ": 7831,
      "407": 7832,
      "804": 7833,
      "Ġsec": 7834,
      "341": 7835,
      "ima": 7836,
      "imal": 7837,
      "à®±à®°à®ļà®©": 7838,
      "Ġnm": 7839,
      "853": 7840,
      "Ġ389": 7841,
      "Ġ369": 7842,
      "illion": 7843,
      "Ġreg": 7844,
      "ternal": 7845,
      "ĠSpace": 7846,
      "ijay": 7847,
      "à¯¦à¯¦": 7848,
      "iddle": 7849,
      "âĪŀ": 7850,
      "329": 7851,
      "417": 7852,
      "624": 7853,
      "638": 7854,
      "675": 7855,
      "668": 7856,
      "911": 7857,
      "HP": 7858,
      "Po": 7859,
      "Tir": 7860,
      "UL": 7861,
      "ious": 7862,
      "sen": 7863,
      "uy": 7864,
      "Ãł": 7865,
      "à®Łà®µà®²": 7866,
      "à®³à®ķà®¤": 7867,
      "à®µà®ķà®ķ": 7868,
      "à®ļà®ķà®Ł": 7869,
      "à®ľà®ķà®®": 7870,
      "à®²à®®à®£": 7871,
      "à®Ĩà®¤à®©": 7872,
      "Ġà®ľà®ªà®²": 7873,
      "Ġ342": 7874,
      "Ġà®ªà®°à®²": 7875,
      "Ġà®ªà®°à®µà®ļ": 7876,
      "Ġà®īà®±à®´": 7877,
      "à®µà®²à®ŀ": 7878,
      "Ġ560": 7879,
      "à®°à®£à®ļ": 7880,
      "Ġ1808": 7881,
      "Ġà®¤à®°à®²": 7882,
      "à®ķà®£à®µà®©": 7883,
      "Ġà®ªà®´à®µ": 7884,
      "ĠCE": 7885,
      "pxà®®": 7886,
      "ĠAre": 7887,
      "Ġ1793": 7888,
      "Ġ1660": 7889,
      "à®°à®µà®³": 7890,
      "ĠBird": 7891,
      "edral": 7892,
      "Ġà®Īà®°à®¨": 7893,
      "à®ħà®°à®ļà®®": 7894,
      "Ġ263": 7895,
      "raj": 7896,
      "rak": 7897,
      "ĠKa": 7898,
      "Ġfilm": 7899,
      "ĠOne": 7900,
      "362": 7901,
      "fter": 7902,
      "673": 7903,
      "669": 7904,
      "Ġworld": 7905,
      "alling": 7906,
      "hyd": 7907,
      "IST": 7908,
      "plex": 7909,
      "ĠEdward": 7910,
      "ĠÏĥ": 7911,
      "ructure": 7912,
      "ephen": 7913,
      "ĠEducation": 7914,
      "022": 7915,
      "478": 7916,
      "533": 7917,
      "630": 7918,
      "690": 7919,
      "830": 7920,
      "860": 7921,
      "920": 7922,
      "Cont": 7923,
      "Joseph": 7924,
      "Vad": 7925,
      "cell": 7926,
      "oil": 7927,
      "âģ": 7928,
      "å¤": 7929,
      "Ġem": 7930,
      "à®Łà®ŀ": 7931,
      "à®Łà®Łà®ª": 7932,
      "à®³à®ķà®®": 7933,
      "à®³à®ŀ": 7934,
      "Ġà®¤à®³à®ķ": 7935,
      "Ġà®¤à®°à®®à®£": 7936,
      "Ġà®ļà®Łà®ķ": 7937,
      "Ġà®īà®ķà®ª": 7938,
      "à®³à®°à®¤": 7939,
      "à®¤à®°à®ķà®Ļ": 7940,
      "à®ķà®²à®µà®°à®®": 7941,
      "Ġà®ħà®Łà®µ": 7942,
      "à®¯à®ķà®ļ": 7943,
      "Ġà®ĵà®ļà®©": 7944,
      "Ġ431": 7945,
      "Ġ570": 7946,
      "erick": 7947,
      "à®¹à®ļ": 7948,
      "inus": 7949,
      "arat": 7950,
      "arian": 7951,
      "1826": 7952,
      "1837": 7953,
      "à¯ĩ..": 7954,
      "ĠSa": 7955,
      "ĠAI": 7956,
      "à®Ĳà®İà®²": 7957,
      "ĠNY": 7958,
      "ĠRoman": 7959,
      "urs": 7960,
      "uru": 7961,
      "à¤·": 7962,
      "ĠHenry": 7963,
      "à®Īà®®": 7964,
      "una": 7965,
      "369": 7966,
      "Ġtri": 7967,
      "995": 7968,
      "381": 7969,
      "457": 7970,
      "aper": 7971,
      "à¯Ī\")": 7972,
      "482": 7973,
      "677": 7974,
      "857": 7975,
      "aker": 7976,
      "angal": 7977,
      "ĠXP": 7978,
      "ĠÎ»": 7979,
      "irect": 7980,
      "flu": 7981,
      "Ġà®Ĩà®ªà®°à®£à®Ļ": 7982,
      "ĠRepublic": 7983,
      "ĠIntroduction": 7984,
      "wamy": 7985,
      "uclear": 7986,
      "%;": 7987,
      "020": 7988,
      "445": 7989,
      "513": 7990,
      "970": 7991,
      "=|": 7992,
      "Bas": 7993,
      "DM": 7994,
      "GS": 7995,
      "KA": 7996,
      "Te": 7997,
      "cus": 7998,
      "cont": 7999,
      "uit": 8000,
      "à®ªà®©à®°": 8001,
      "à¯Ī|": 8002,
      "à®µà®¯à®®": 8003,
      "Ġà®ħà®ļà®®": 8004,
      "Ġà®¨à®°à®ķ": 8005,
      "à¯į.:": 8006,
      "Ġà®Ĩà®³à®µà®¨": 8007,
      "Ġà®ĩà®°à®®": 8008,
      "Ġà®¯à®·": 8009,
      "Ġà®¯à®µà®©à®°": 8010,
      "Ġà®®à®±à®ª": 8011,
      "Ġà®ħà®°à®Ł": 8012,
      "Ġà®ľà®©à®©": 8013,
      "Ġà®ĵà®®à®²": 8014,
      "à®ļà®®à®¯à®ª": 8015,
      "Ġà®Ĭà®°à®£": 8016,
      "Ġà®ĩà®ļà®ķ": 8017,
      "Ġ1810": 8018,
      "arge": 8019,
      "Ġà®µà®²à®µ": 8020,
      "pxà®ª": 8021,
      "1780": 8022,
      "ĠRout": 8023,
      "à®Ĭà®±": 8024,
      "à®Ĭà®Łà®ķà®®": 8025,
      "Ġ2100": 8026,
      "Ġthis": 8027,
      "ĠWal": 8028,
      "607": 8029,
      "803": 8030,
      "361": 8031,
      "486": 8032,
      "ĠâĨ": 8033,
      "à¯įâĢĻ.": 8034,
      "686": 8035,
      "anga": 8036,
      "Ġ382": 8037,
      "alls": 8038,
      "763": 8039,
      "ĠIndust": 8040,
      "ohann": 8041,
      "ikk": 8042,
      "amily": 8043,
      "anguages": 8044,
      "Ġãĥ": 8045,
      "ĠCatholic": 8046,
      "3000": 8047,
      "412": 8048,
      "439": 8049,
      "717": 8050,
      "775": 8051,
      "978": 8052,
      "BD": 8053,
      "Me": 8054,
      "ND": 8055,
      "NGC": 8056,
      "RE": 8057,
      "Sal": 8058,
      "fin": 8059,
      "iro": 8060,
      "Ãº": 8061,
      "×¨": 8062,
      "ÙĤ": 8063,
      "à®©à®ķà®°à®®": 8064,
      "Ġà®µà®¯à®ļ": 8065,
      "Ġà®ĩà®²à®®": 8066,
      "Ġà®ļà®ľ": 8067,
      "Ġà®Ĩà®¯à®®": 8068,
      "Ġà®İà®©à®°": 8069,
      "Ġà®°à®ķà®Ļ": 8070,
      "Ġà®ĩà®¤à®®": 8071,
      "à®²à®®à®°": 8072,
      "à®Łà®²à®°": 8073,
      "thn": 8074,
      "Ġà®¹à®µà®°": 8075,
      "Ġ610": 8076,
      "à®¹à®ľ": 8077,
      "Ġà®ķà®¤à®ķà®³": 8078,
      "Ġ1797": 8079,
      "Ġ1781": 8080,
      "Ġ1620": 8081,
      "à®Ĳà®İà®®": 8082,
      "ĠMB": 8083,
      "à®©à®µà®°à®®": 8084,
      "à®Łà®µà®ļà®®": 8085,
      "ĠDef": 8086,
      "omics": 8087,
      "à®ĵà®Ĩà®°": 8088,
      "ĠFar": 8089,
      "ĠWomen": 8090,
      "608": 8091,
      "805": 8092,
      "806": 8093,
      "705": 8094,
      "Ġdec": 8095,
      "à®ľà®¯à®¨à®ķà®°à®®": 8096,
      "oper": 8097,
      "377": 8098,
      "Ġmag": 8099,
      "Ġà®ªà®°à®®à®¤": 8100,
      "649": 8101,
      "447": 8102,
      "962": 8103,
      "681": 8104,
      "887": 8105,
      "Ġ361": 8106,
      "ĠStory": 8107,
      "ipl": 8108,
      "à´¤": 8109,
      "perial": 8110,
      "ĠÐ¡": 8111,
      "azh": 8112,
      "à¶º": 8113,
      "Ġalign": 8114,
      "ÑĢÐ°": 8115,
      "ĠCentral": 8116,
      "ĠMathemat": 8117,
      "ĠFoundation": 8118,
      "035": 8119,
      "411": 8120,
      "426": 8121,
      "546": 8122,
      "648": 8123,
      "840": 8124,
      "910": 8125,
      "Brit": 8126,
      "CE": 8127,
      "Car": 8128,
      "Mac": 8129,
      "cc": 8130,
      "ez": 8131,
      "fess": 8132,
      "rug": 8133,
      "xy": 8134,
      "Ġé": 8135,
      "à®Łà®¯à®°": 8136,
      "à®Łà®°à®®": 8137,
      "à®ªà®ĥà®¤": 8138,
      "à®®à®µà®°à®®": 8139,
      "à®²à®±à®¤": 8140,
      "à®¯à®ļà®®": 8141,
      "à®µà®ļà®©": 8142,
      "à®ļà®µà®ª": 8143,
      "à¯ĩ/": 8144,
      "Ġà®ħà®ĩà®ħà®¤": 8145,
      "à®Łà®¤à®²": 8146,
      "Ġà®īà®³à®ļ": 8147,
      "Ġà®ľà®¯à®ļ": 8148,
      "Ġà®ħà®±à®µà®´": 8149,
      "à®£à®®à®¯à®®": 8150,
      "Ġà®Īà®°à®Ł": 8151,
      "Ġà®®à®²à®Ļ": 8152,
      "1822": 8153,
      "1829": 8154,
      "1827": 8155,
      "1805": 8156,
      "ĠCA": 8157,
      "ĠCourt": 8158,
      "à®°à®ķà®¸": 8159,
      "ĠSup": 8160,
      "ĠMount": 8161,
      "ĠMongol": 8162,
      "ĠBur": 8163,
      "Ġpoint": 8164,
      "ĠGo": 8165,
      "ilt": 8166,
      "elm": 8167,
      "Ġ291": 8168,
      "Ġsch": 8169,
      "ida": 8170,
      "382": 8171,
      "754": 8172,
      "453": 8173,
      "osm": 8174,
      "674": 8175,
      "643": 8176,
      "462": 8177,
      "ocr": 8178,
      "athy": 8179,
      "atham": 8180,
      "ĠXI": 8181,
      "comm": 8182,
      "ished": 8183,
      "ords": 8184,
      "âĢĶâĢĶ": 8185,
      "ĠShah": 8186,
      "ample": 8187,
      "à°¾": 8188,
      "orial": 8189,
      "ĠProgram": 8190,
      "Ġ-->": 8191,
      "rench": 8192,
      "ĠÛŀ": 8193,
      "\"\"": 8194,
      "414": 8195,
      "423": 8196,
      "490": 8197,
      "467": 8198,
      "432": 8199,
      "566": 8200,
      "628": 8201,
      "794": 8202,
      "IO": 8203,
      "List": 8204,
      "Met": 8205,
      "PG": 8206,
      "ais": 8207,
      "Ġec": 8208,
      "à®ªà®ļà®²": 8209,
      "à®²à®ªà®©": 8210,
      "à®²à®°à®Ļ": 8211,
      "à®µà®Łà®²": 8212,
      "à¯ĩ),": 8213,
      "à®´à®®à®£": 8214,
      "Ġà®īà®®à®ķ": 8215,
      "Ġà®Ĵà®Ļ": 8216,
      "Ġ(~": 8217,
      "Ġà®ĩà®°à®ļà®®": 8218,
      "à®ĩà®µà®³": 8219,
      "à®Łà®®à®±": 8220,
      "Ġà®Ĭà®£": 8221,
      "Ġ319": 8222,
      "Ġ332": 8223,
      "Ġà®Ĭà®°à®ķà®®": 8224,
      "Ġ415": 8225,
      "Ġà®¤à®°à®µà®²": 8226,
      "ria": 8227,
      "1824": 8228,
      "1833": 8229,
      "1803": 8230,
      "à®ĩà®²à®µà®ļ": 8231,
      "à®°à®£à®®à®²": 8232,
      "ĠSar": 8233,
      "ĠAT": 8234,
      "à®Ĳà®¯à®©": 8235,
      "ĠMTV": 8236,
      "à®µà®¨à®¤": 8237,
      "ĠTCP": 8238,
      "ĠIF": 8239,
      "iti": 8240,
      "Ġpg": 8241,
      "rogen": 8242,
      "Ġsub": 8243,
      "ĠOri": 8244,
      "ĠOlymp": 8245,
      "iving": 8246,
      "ĠUTC": 8247,
      "998": 8248,
      "oto": 8249,
      "à¯Ī\".": 8250,
      "imus": 8251,
      "441": 8252,
      "angle": 8253,
      "574": 8254,
      "Ġ374": 8255,
      "ĠChar": 8256,
      "Ġhis": 8257,
      "ĠThir": 8258,
      "radition": 8259,
      "duct": 8260,
      "CMBT": 8261,
      "Ġabout": 8262,
      "ĠEconomic": 8263,
      "ĠCaste": 8264,
      "Ġà®ļà®²à®©à®ª": 8265,
      ".|": 8266,
      "428": 8267,
      "433": 8268,
      "713": 8269,
      "816": 8270,
      ":#": 8271,
      "IUS": 8272,
      "Jack": 8273,
      "Sur": 8274,
      "day": 8275,
      "graph": 8276,
      "mark": 8277,
      "ni": 8278,
      "nit": 8279,
      "ois": 8280,
      "pet": 8281,
      "urity": 8282,
      "à®³à®µà®Ł": 8283,
      "Ġà®ªà®±à®®": 8284,
      "Ġà®ªà®ļà®²": 8285,
      "Ġà®®à®ķà®²à®©": 8286,
      "Ġà®¤à®µà®ķ": 8287,
      "à®¨à®µà®¨": 8288,
      "Ġà®¨à®²à®ª": 8289,
      "à¯į.-": 8290,
      "Ġà®Ĩà®ķà®ª": 8291,
      "Ġà®¯à®°": 8292,
      "à®ľà®ķà®¤": 8293,
      "à®ķà®²à®µà®°à®¤": 8294,
      "à®Ĩà®ŀ": 8295,
      "à®İà®ŀ": 8296,
      "Ġà®ĵà®¹": 8297,
      "Ġà®ĵà®İà®¸": 8298,
      "Ġ391": 8299,
      "Ġà®ļà®®à®£à®ķ": 8300,
      "Ġ512": 8301,
      "1812": 8302,
      "1842": 8303,
      "à®²à®©à®±": 8304,
      "ester": 8305,
      "ĠCor": 8306,
      "ĠSl": 8307,
      "ĠMun": 8308,
      "ĠIL": 8309,
      "elv": 8310,
      "ĠHz": 8311,
      "606": 8312,
      "703": 8313,
      "Ġbi": 8314,
      "396": 8315,
      "apore": 8316,
      "044": 8317,
      "489": 8318,
      "Ġ355": 8319,
      "Ġ357": 8320,
      "Ġ358": 8321,
      "786": 8322,
      "akes": 8323,
      "472": 8324,
      "473": 8325,
      "888": 8326,
      "666": 8327,
      "493": 8328,
      "ellow": 8329,
      "Ġvan": 8330,
      "Ġhas": 8331,
      "ricinfo": 8332,
      "à²¿": 8333,
      "Ġà®Ĩà®²à®®à®°à®¤": 8334,
      "ittle": 8335,
      "ombo": 8336,
      "ranslation": 8337,
      "ĠOffice": 8338,
      "ĠRailway": 8339,
      "075": 8340,
      "419": 8341,
      "521": 8342,
      "511": 8343,
      "744": 8344,
      "946": 8345,
      "DK": 8346,
      "OT": 8347,
      "pect": 8348,
      "à¯ģ=": 8349,
      "à®Łà®¯à®ļ": 8350,
      "à®²à®µà®¤": 8351,
      "à®²à®°à®¤": 8352,
      "à®©à®Łà®ķ": 8353,
      "à®©à®ªà®³": 8354,
      "Ġà®ªà®ĥà®±": 8355,
      "à®¨à®®à®ļ": 8356,
      "à¯ĩ+": 8357,
      "à¯Ĥ/": 8358,
      "à¯Ĥ:": 8359,
      "Ġà®Ĩà®ļà®©": 8360,
      "Ġà®Ĩà®ļà®©à®®": 8361,
      "à®¤à®²à®Ł": 8362,
      "à®ķà®®à®¯à®®": 8363,
      "Ġà®µà®°à®¤à®©": 8364,
      "à®¤à®®à®¤à®¤": 8365,
      "à®ħà®¤à®°": 8366,
      "à®Ĩà®©à®¤": 8367,
      "Ġà®ľà®ķà®©": 8368,
      "Ġ344": 8369,
      "Ġ392": 8370,
      "thi": 8371,
      "à®¤à®µà®´": 8372,
      "Ġ477": 8373,
      "à®°à®£à®©": 8374,
      "à®µà®ķà®±": 8375,
      "Ġà®µà®²à®¯": 8376,
      "503": 8377,
      "ĠCIA": 8378,
      "ĠCPU": 8379,
      "ami": 8380,
      "Ġ1658": 8381,
      "ĠBoard": 8382,
      "ĠDisc": 8383,
      "elt": 8384,
      "Ġà®·à®°à®ª": 8385,
      "à®Īà®µ": 8386,
      "ĠFin": 8387,
      "Ġ289": 8388,
      "Ġcount": 8389,
      "Ġtheory": 8390,
      "ĠJay": 8391,
      "Ġserv": 8392,
      "707": 8393,
      "istic": 8394,
      "383": 8395,
      "751": 8396,
      "954": 8397,
      "à®ķà®µà®°à®ª": 8398,
      "086": 8399,
      "471": 8400,
      "aval": 8401,
      "à®ħà®µà®ļà®°": 8402,
      "ajor": 8403,
      "Arthur": 8404,
      "ĠStudy": 8405,
      "wami": 8406,
      "American": 8407,
      "328": 8408,
      "475": 8409,
      "701": 8410,
      "721": 8411,
      "727": 8412,
      "792": 8413,
      "948": 8414,
      "Can": 8415,
      "Med": 8416,
      "Net": 8417,
      "sk": 8418,
      "Â³": 8419,
      "Ùĥ": 8420,
      "à¯įâĢ¦": 8421,
      "à®ķà®ķà®¤": 8422,
      "à®¤à®¯à®ª": 8423,
      "à®±à®ķà®Ł": 8424,
      "Ġà®ķà®ļà®©": 8425,
      "Ġà®ĩà®°à®¤à®®": 8426,
      "à®ľà®¹": 8427,
      "Ġà®ıà®°à®£à®®": 8428,
      "à®Ĩà®¤à®°": 8429,
      "à®Ĩà®¤à®°à®µ": 8430,
      "Ġà®ķà®°à®£à®Ļ": 8431,
      "à®µà®Łà®ļ": 8432,
      "à®¯à®ķà®Ł": 8433,
      "à®ķà®´à®Ł": 8434,
      "Ġà®ªà®°à®©": 8435,
      "à®ļà®°à®Ļ": 8436,
      "Ġà®Īà®Ļ": 8437,
      "Ġ417": 8438,
      "anish": 8439,
      "à®ķà®©à®ļ": 8440,
      "umm": 8441,
      "ument": 8442,
      "atin": 8443,
      "1813": 8444,
      "ĠCamp": 8445,
      "ĠSH": 8446,
      "ĠID": 8447,
      "ĠBay": 8448,
      "ĠBrown": 8449,
      "ades": 8450,
      "à®Ĭà®Łà®ķà®¤": 8451,
      "aga": 8452,
      "ĠJoseph": 8453,
      "ops": 8454,
      "apital": 8455,
      "à®ħà®ķà®¸": 8456,
      "Ġ351": 8457,
      "683": 8458,
      "555": 8459,
      "972": 8460,
      "662": 8461,
      "ĠChinese": 8462,
      "Ġlog": 8463,
      "anti": 8464,
      "ustrated": 8465,
      "ize": 8466,
      "aceae": 8467,
      "harm": 8468,
      "Ġà®ķà®ľà®ªà®¤": 8469,
      "Ġà®Ĩà®²à®®à®°à®®": 8470,
      "ĠAmerica": 8471,
      "ESCO": 8472,
      "ĠRevolution": 8473,
      "ĠPublishers": 8474,
      "ĠMagazine": 8475,
      "ategory": 8476,
      "Ġunder": 8477,
      "!!": 8478,
      "526": 8479,
      "844": 8480,
      "940": 8481,
      "BP": 8482,
      "Sec": 8483,
      "XL": 8484,
      "gal": 8485,
      "gov": 8486,
      "ja": 8487,
      "kins": 8488,
      "uin": 8489,
      "âĤ": 8490,
      "à®ªà®±à®ª": 8491,
      "à®ªà®ľà®©": 8492,
      "à®²à®´": 8493,
      "à®µà®ļà®©à®®": 8494,
      "Ġà®İà®®à®ķ": 8495,
      "à®¯à®®à®¤": 8496,
      "Ġà®ıà®°à®£": 8497,
      "à®Łà®°à®Ł": 8498,
      "Ġà®ķà®²à®ļà®®": 8499,
      "Ġà®Ĭà®±à®µ": 8500,
      "Ġà®ªà®°à®Ł": 8501,
      "Ġà®Īà®Ĩà®°": 8502,
      "ump": 8503,
      "umin": 8504,
      "à¯į\"(": 8505,
      "1828": 8506,
      "1835": 8507,
      "à¯ĩ.,": 8508,
      "Ġà®¤à®Łà®µà®´": 8509,
      "stein": 8510,
      "icon": 8511,
      "1750": 8512,
      "Ġorig": 8513,
      "ĠRain": 8514,
      "ĠGandhi": 8515,
      "ream": 8516,
      "Ġ278": 8517,
      "Ġ294": 8518,
      "359": 8519,
      "373": 8520,
      "Ġtrans": 8521,
      "756": 8522,
      "042": 8523,
      "oday": 8524,
      "imes": 8525,
      "984": 8526,
      "958": 8527,
      "782": 8528,
      "688": 8529,
      "587": 8530,
      "579": 8531,
      "Ġ371": 8532,
      "562": 8533,
      "ideo": 8534,
      "ultan": 8535,
      "Ġà®ħà®ķà®®à®Ł": 8536,
      "ographic": 8537,
      "à±ģ": 8538,
      "Black": 8539,
      "ĠIslands": 8540,
      "ĠHistorical": 8541,
      "033": 8542,
      "038": 8543,
      "418": 8544,
      "416": 8545,
      "525": 8546,
      "534": 8547,
      "577": 8548,
      "588": 8549,
      "615": 8550,
      "665": 8551,
      "667": 8552,
      "696": 8553,
      "724": 8554,
      "723": 8555,
      "848": 8556,
      "925": 8557,
      "Mus": 8558,
      "Sw": 8559,
      "ique": 8560,
      "ror": 8561,
      "ven": 8562,
      "Ġri": 8563,
      "à¯į<": 8564,
      "à®Łà®µà®¤": 8565,
      "à®³à®´à®ķà®°": 8566,
      "à®µà®£à®¤": 8567,
      "Ġà®īà®®à®¤": 8568,
      "Ġ(+": 8569,
      "Ġà®ĩà®°à®©": 8570,
      "Ġà®¯à®ľ": 8571,
      "Ġà®ħà®®à®°à®ļ": 8572,
      "à®¤à®®à®®": 8573,
      "Ġà®ħà®°à®µà®ķ": 8574,
      "à®ħà®ļà®²": 8575,
      "Ġà®®à®°à®ķà®¤à®®": 8576,
      "Ġà®Ĩà®©à®µà®°": 8577,
      "aling": 8578,
      "atter": 8579,
      "Ġà®µà®³à®°à®µ": 8580,
      "à®ĩà®²à®¨": 8581,
      "ĠCode": 8582,
      "ĠSund": 8583,
      "ĠAP": 8584,
      "amine": 8585,
      "Ġ1794": 8586,
      "Ġ1787": 8587,
      "Ġ1772": 8588,
      "Ġà®Ĩà®¤à®µà®©": 8589,
      "icip": 8590,
      "ĠMn": 8591,
      "1783": 8592,
      "ĠGood": 8593,
      "à¤¬": 8594,
      "à®Īà®Ļ": 8595,
      "à®Ĭà®ŀ": 8596,
      "603": 8597,
      "ĠKe": 8598,
      "809": 8599,
      "456": 8600,
      "apy": 8601,
      "904": 8602,
      "Ġmg": 8603,
      "à¯Ī---": 8604,
      "953": 8605,
      "443": 8606,
      "avar": 8607,
      "ards": 8608,
      "869": 8609,
      "à´¨": 8610,
      "inda": 8611,
      "endra": 8612,
      "Ġrep": 8613,
      "Ġreport": 8614,
      "ISTR": 8615,
      "à°¿": 8616,
      "ĠProt": 8617,
      "ĠManagement": 8618,
      "Ġarch": 8619,
      "ĠPhilosophy": 8620,
      "load": 8621,
      "Andrew": 8622,
      "ĠElection": 8623,
      "Ġvalign": 8624,
      "itecture": 8625,
      "023": 8626,
      "064": 8627,
      "437": 8628,
      "465": 8629,
      "494": 8630,
      "512": 8631,
      "516": 8632,
      "639": 8633,
      "693": 8634,
      "746": 8635,
      "832": 8636,
      "913": 8637,
      "Di": 8638,
      "Gold": 8639,
      "North": 8640,
      "Ur": 8641,
      "VC": 8642,
      "aedia": 8643,
      "oi": 8644,
      "×Ĳ": 8645,
      "Ġatt": 8646,
      "à®¯à®¨à®ķà®°": 8647,
      "à®ķà®³à®¨": 8648,
      "à¯Ĥ'": 8649,
      "Ġà®İà®ķà®©": 8650,
      "Ġà®Ĩà®£à®µà®®": 8651,
      "Ġà®ªà®°à®µà®ķ": 8652,
      "Ġ435": 8653,
      "Ġ630": 8654,
      "Ġà®ĩà®±à®µ": 8655,
      "1811": 8656,
      "1839": 8657,
      "Ġà®īà®²à®ķà®³à®µ": 8658,
      "ĠSen": 8659,
      "ĠSah": 8660,
      "Ġ1761": 8661,
      "Ġ1773": 8662,
      "à®±à®µà®£": 8663,
      "str": 8664,
      "ĠMA": 8665,
      "ĠMot": 8666,
      "Ġà®ĩà®®à®¯à®®": 8667,
      "à®µà®´à®ª": 8668,
      "ĠGa": 8669,
      "ĠGard": 8670,
      "olt": 8671,
      "à®Ĩà®°à®ŀ": 8672,
      "ased": 8673,
      "ĠLast": 8674,
      "inger": 8675,
      "rough": 8676,
      "ĠFront": 8677,
      "ĠKer": 8678,
      "Ġdel": 8679,
      "Ġ405": 8680,
      "irth": 8681,
      "Ġà®ļà®µà®ķà®°": 8682,
      "072": 8683,
      "aith": 8684,
      "663": 8685,
      "569": 8686,
      "872": 8687,
      "873": 8688,
      "874": 8689,
      "ĠYear": 8690,
      "Ġà¤¨": 8691,
      "Ġstate": 8692,
      "Ant": 8693,
      "à¶±": 8694,
      "à¶½": 8695,
      "Ġà®īà®µà®®à®®": 8696,
      "rederick": 8697,
      "Geo": 8698,
      "Ġà¯¨": 8699,
      "ĠGlobal": 8700,
      "ĠAwards": 8701,
      "bserv": 8702,
      "scription": 8703,
      "595": 8704,
      "547": 8705,
      "622": 8706,
      "635": 8707,
      "664": 8708,
      "814": 8709,
      "865": 8710,
      "935": 8711,
      "Ath": 8712,
      "CG": 8713,
      "Fi": 8714,
      "Isl": 8715,
      "nes": 8716,
      "oud": 8717,
      "×Ķ": 8718,
      "ĢâĶ": 8719,
      "à®¤à®ļà®°": 8720,
      "à®°à®ªà®°": 8721,
      "à®°à®Łà®ķ": 8722,
      "à®®à®ķà®µ": 8723,
      "à®®à®ļà®°": 8724,
      "à®±à®Ĭà®¤": 8725,
      "à®µà®¤à®²": 8726,
      "à®µà®²à®ķ": 8727,
      "à¯ģ.'": 8728,
      "Ġà®Ĵà®ĥà®ª": 8729,
      "Ġà®Łà®ªà®³": 8730,
      "à®Ĩà®µà®Ł": 8731,
      "Ġà®ªà®²à®µà®¨": 8732,
      "Ġà®Ĭà®£à®°": 8733,
      "à®®à®©à®©": 8734,
      "Ġà®ļà®®à®£à®¤": 8735,
      "Ġà®®à®©à®Ļ": 8736,
      "Ġ\"...": 8737,
      "Ġà®Īà®´à®ķ": 8738,
      "Ġ483": 8739,
      "Ġ525": 8740,
      "à®īà®´à®µ": 8741,
      "erd": 8742,
      "Ġà®¸à®ª": 8743,
      "ona": 8744,
      "rism": 8745,
      "506": 8746,
      "ĠPen": 8747,
      "1707": 8748,
      "ĠTi": 8749,
      "ĠBusiness": 8750,
      "ĠRock": 8751,
      "ĠHome": 8752,
      "à®ĵà®¸": 8753,
      "unch": 8754,
      "704": 8755,
      "Ġdisease": 8756,
      "ĠOpen": 8757,
      "996": 8758,
      "902": 8759,
      "788": 8760,
      "961": 8761,
      "cean": 8762,
      "687": 8763,
      "971": 8764,
      "589": 8765,
      "ĠZn": 8766,
      "Ġà®īà®ªà®ķà®°à®£à®¤": 8767,
      "ĠExpl": 8768,
      "Ġà®¤à®ķà®µà®±": 8769,
      "color": 8770,
      "Ġcolor": 8771,
      "osphere": 8772,
      "095": 8773,
      "591": 8774,
      "629": 8775,
      "633": 8776,
      "747": 8777,
      "801": 8778,
      "815": 8779,
      "813": 8780,
      "811": 8781,
      "891": 8782,
      "939": 8783,
      "Cu": 8784,
      "Er": 8785,
      "MR": 8786,
      "Ma": 8787,
      "NC": 8788,
      "Sat": 8789,
      "WS": 8790,
      "ced": 8791,
      "cel": 8792,
      "kk": 8793,
      "pan": 8794,
      "Ð³": 8795,
      "áŀ": 8796,
      "Ġ@": 8797,
      "à®ķà®¤à®²": 8798,
      "à®ķà®ļà®©": 8799,
      "Ġà®ªà®µà®²": 8800,
      "Ġà®¨à®³à®©": 8801,
      "Ġ(âĪĴ": 8802,
      "Ġà®°à®®à®£à®©": 8803,
      "Ġà®²à®ļ": 8804,
      "à®ĩà®©à®µ": 8805,
      "à®¯à®°à®²": 8806,
      "Ġà®īà®³à®®": 8807,
      "Ġà®ĩà®¤à®¯à®ļ": 8808,
      "Ġà®ªà®²à®°à®¤": 8809,
      "à®ķà®µà®£": 8810,
      "Ġà®µà®Łà®µ": 8811,
      "Ġ478": 8812,
      "Ġ473": 8813,
      "Ġ530": 8814,
      "à®īà®ªà®¨": 8815,
      "Ġà®Ĩà®©à®ª": 8816,
      "à®ĥà®ªà®¸": 8817,
      "à¯į--": 8818,
      "rip": 8819,
      "ĠSQL": 8820,
      "ĠPa": 8821,
      "Ġà®ķà®µà®ļà®Ļ": 8822,
      "Ġ1760": 8823,
      "stru": 8824,
      "ico": 8825,
      "icago": 8826,
      "1792": 8827,
      "1782": 8828,
      "ĠTrib": 8829,
      "ĠRights": 8830,
      "ĠLong": 8831,
      "à®Īà®Ĩà®°": 8832,
      "à®Ĭà®Łà®ķà®Ļ": 8833,
      "Ġcar": 8834,
      "à¯Ĩ.,": 8835,
      "ĠVII": 8836,
      "Ġdev": 8837,
      "ĠUV": 8838,
      "ĠUnd": 8839,
      "opulation": 8840,
      "758": 8841,
      "Ġmed": 8842,
      "951": 8843,
      "959": 8844,
      "554": 8845,
      "976": 8846,
      "ability": 8847,
      "586": 8848,
      "à®Ĩà®²à®¯à®Ļ": 8849,
      "à¯į!,": 8850,
      "Ġà®ķà®®à®²à®¹": 8851,
      "ources": 8852,
      "iki": 8853,
      "ought": 8854,
      "clud": 8855,
      "ĠShar": 8856,
      "à¯į...\"": 8857,
      "ĠAbd": 8858,
      "ĠHighway": 8859,
      "ĠRoutledge": 8860,
      "090": 8861,
      "427": 8862,
      "515": 8863,
      "545": 8864,
      "565": 8865,
      "631": 8866,
      "748": 8867,
      "812": 8868,
      "915": 8869,
      "Category": 8870,
      "Hack": 8871,
      "KR": 8872,
      "Mur": 8873,
      "Saint": 8874,
      "tamil": 8875,
      "âĨ": 8876,
      "à®µà®³à®ķ": 8877,
      "Ġà®ķà®¤à®ķ": 8878,
      "à®¨à®µà®°à®¤": 8879,
      "Ġà®µà®Łà®Ļ": 8880,
      "Ġ().": 8881,
      "Ġà®ĩà®°à®¨": 8882,
      "Ġà®°à®£à®ļ": 8883,
      "Ġà®¯à®¨": 8884,
      "à®ľà®¯à®ļ": 8885,
      "Ġà®®à®ķà®Ł": 8886,
      "à®¿..": 8887,
      "Ġà®ĵà®£": 8888,
      "à®ļà®®à®£à®®": 8889,
      "Ġ\"[": 8890,
      "Ġ437": 8891,
      "erry": 8892,
      "à®ªà®©à®ķ": 8893,
      "à®ĥà®ªà®²": 8894,
      "esus": 8895,
      "ĠPet": 8896,
      "Ġà®Ĩà®²à®Ł": 8897,
      "Ġ1785": 8898,
      "Ġ1776": 8899,
      "Ġ1784": 8900,
      "à®ıà®±à®ķ": 8901,
      "stron": 8902,
      "icus": 8903,
      "ĠMary": 8904,
      "1790": 8905,
      "1791": 8906,
      "ĠTe": 8907,
      "à®¾.)": 8908,
      "ĠDB": 8909,
      "ader": 8910,
      "ĠFIFA": 8911,
      "agan": 8912,
      "Ġback": 8913,
      "ĠOSPF": 8914,
      "Ġà®ĩà®´à®¤": 8915,
      "irl": 8916,
      "487": 8917,
      "odia": 8918,
      "Ġ/-": 8919,
      "à¯įâĢĻâĢĻ": 8920,
      "682": 8921,
      "559": 8922,
      "avy": 8923,
      "881": 8924,
      "573": 8925,
      "ĠChild": 8926,
      "ĠStandard": 8927,
      "563": 8928,
      "engine": 8929,
      "ittee": 8930,
      "ĠPublished": 8931,
      "Î¯Î±": 8932,
      "background": 8933,
      "ĠPhysics": 8934,
      "ĠAdministration": 8935,
      "*)": 8936,
      "029": 8937,
      "519": 8938,
      "522": 8939,
      "536": 8940,
      "537": 8941,
      "617": 8942,
      "795": 8943,
      "FP": 8944,
      "LR": 8945,
      "MB": 8946,
      "Pol": 8947,
      "Sar": 8948,
      "SQL": 8949,
      "VIII": 8950,
      "ged": 8951,
      "ih": 8952,
      "key": 8953,
      "ycl": 8954,
      "æľ": 8955,
      "Ġu": 8956,
      "à®®à®¯à®Ļ": 8957,
      "à®ķà®³à®ļ": 8958,
      "à®£à®¯à®µ": 8959,
      "à¯ĭ/": 8960,
      "à®´à®µà®¨": 8961,
      "Ġà®İà®ľ": 8962,
      "Ġà®Ĩà®²à®ķ": 8963,
      "à¯į,.": 8964,
      "Ġà®ĩà®°à®ķà®Ļ": 8965,
      "Ġà®Łà®¯à®¸": 8966,
      "à®ĩà®©à®ķ": 8967,
      "à®¯à®²à®¤": 8968,
      "à®ħà®Łà®Ļ": 8969,
      "Ġà®ķà®²à®ķà®Ļ": 8970,
      "ano": 8971,
      "Ġà®ĩà®µà®³à®¤": 8972,
      "à®īà®¸": 8973,
      "Ġ608": 8974,
      "Ġà®Ĩà®°à®Ļ": 8975,
      "Ġ1813": 8976,
      "alle": 8977,
      "à®ļà®²à®ķà®®": 8978,
      "ĠCEO": 8979,
      "ĠSE": 8980,
      "ĠSAT": 8981,
      "ĠPeng": 8982,
      "Ġ1560": 8983,
      "Ġ1575": 8984,
      "Ġ1564": 8985,
      "Ġ1774": 8986,
      "Ġ1450": 8987,
      "ĠMen": 8988,
      "ĠMass": 8989,
      "1775": 8990,
      "ĠNeg": 8991,
      "ĠRoyal": 8992,
      "1300": 8993,
      "à¯Ģ./": 8994,
      "usion": 8995,
      "ads": 8996,
      "reet": 8997,
      "ĠWCW": 8998,
      "emin": 8999,
      "ĠJapan": 9000,
      "ĠVan": 9001,
      "Ġmin": 9002,
      "Ġmore": 9003,
      "952": 9004,
      "077": 9005,
      "968": 9006,
      "771": 9007,
      "779": 9008,
      "461": 9009,
      "884": 9010,
      "ocol": 9011,
      "abh": 9012,
      "ĠChennai": 9013,
      "ĠStation": 9014,
      "Ġlink": 9015,
      "Ġgroup": 9016,
      "ques": 9017,
      "Ġequ": 9018,
      "ugu": 9019,
      "Ġ??": 9020,
      "plement": 9021,
      "ĠLankan": 9022,
      "ĠãĤ": 9023,
      "yndrome": 9024,
      "ĠCongress": 9025,
      "028": 9026,
      "027": 9027,
      "039": 9028,
      "032": 9029,
      "468": 9030,
      "578": 9031,
      "541": 9032,
      "612": 9033,
      "627": 9034,
      "712": 9035,
      "716": 9036,
      "725": 9037,
      "728": 9038,
      "765": 9039,
      "824": 9040,
      "938": 9041,
      "Air": 9042,
      "Ben": 9043,
      "Ec": 9044,
      "Kad": 9045,
      "LE": 9046,
      "Louis": 9047,
      "Muth": 9048,
      "Non": 9049,
      "PH": 9050,
      "WA": 9051,
      "gin": 9052,
      "},": 9053,
      "×ľ": 9054,
      "à¯°": 9055,
      "à®ķà®ĩà®¨": 9056,
      "à®¤à®£à®©": 9057,
      "à®°à®Łà®°": 9058,
      "à®°à®ķà®Ł": 9059,
      "à®®à®ļà®ķ": 9060,
      "à®®à®ķà®°à®¨": 9061,
      "à®ļà®µà®²": 9062,
      "à®¨à®¯à®¤": 9063,
      "à®£à®£": 9064,
      "à¯ĭâĢĻ": 9065,
      "à®µà®°à®Ł": 9066,
      "à®ĩà®·": 9067,
      "Ġ-(": 9068,
      "Ġà®ķà®£à®ª": 9069,
      "à®ķà®µà®ª": 9070,
      "Ġà®Ĭà®ķà®®": 9071,
      "Ġà®Īà®ļà®²": 9072,
      "Ġ498": 9073,
      "Ġ510": 9074,
      "à®®à®°à®µ": 9075,
      "à®¨à®ķà®°à®ķ": 9076,
      "ĠPLC": 9077,
      "ĠAU": 9078,
      "ĠAut": 9079,
      "ĠAuth": 9080,
      "Ġ1767": 9081,
      "Ġ1769": 9082,
      "icles": 9083,
      "Ġà®ĥà®ªà®ķ": 9084,
      "ĠGerman": 9085,
      "ĠDam": 9086,
      "ilit": 9087,
      "ases": 9088,
      "Ġ2600": 9089,
      "ĠFM": 9090,
      "ĠFFT": 9091,
      "à®²à®¨à®±": 9092,
      "eman": 9093,
      "agiri": 9094,
      "Ġsw": 9095,
      "706": 9096,
      "993": 9097,
      "à®ªà®°à®®à®ķ": 9098,
      "055": 9099,
      "056": 9100,
      "652": 9101,
      "Ġ359": 9102,
      "076": 9103,
      "062": 9104,
      "852": 9105,
      "091": 9106,
      "Ġwork": 9107,
      "Ø§Ø±": 9108,
      "Ang": 9109,
      "à°°": 9110,
      "iyar": 9111,
      "Ġ0001": 9112,
      "antha": 9113,
      "Ġà®ļà®ªà®°à®ķà®®": 9114,
      "à®īà®´à®µà®°": 9115,
      "à®¯à®´à®ķà®©": 9116,
      "ĠMedicine": 9117,
      "rishna": 9118,
      "Thiruv": 9119,
      "General": 9120,
      "ĠLiterature": 9121,
      "ĠBuddh": 9122,
      "ĠAfrica": 9123,
      "uilding": 9124,
      "ĠAhmed": 9125,
      "034": 9126,
      "429": 9127,
      "434": 9128,
      "499": 9129,
      "580": 9130,
      "532": 9131,
      "621": 9132,
      "637": 9133,
      "738": 9134,
      "731": 9135,
      "798": 9136,
      "928": 9137,
      "944": 9138,
      "Bill": 9139,
      "GM": 9140,
      "Nokia": 9141,
      "Pul": 9142,
      "Port": 9143,
      "Wil": 9144,
      "pdf": 9145,
      "sub": 9146,
      "vision": 9147,
      "à®¿]]": 9148,
      "à®¤à®ļà®°à®ļ": 9149,
      "à®Łà®µà®ķ": 9150,
      "à®¾âĢĵ": 9151,
      "à®ªà®¯à®±": 9152,
      "à®ļà®¹": 9153,
      "à®ļà®¯à®µ": 9154,
      "à®´à®£": 9155,
      "à¯į.|": 9156,
      "Ġà®Ĩà®ľ": 9157,
      "Ġà®Ĩà®¯à®ķ": 9158,
      "Ġà®Ĩà®¹": 9159,
      "à®ĩà®Łà®ļ": 9160,
      "à®ĩà®´à®ª": 9161,
      "Ġà®ľà®¨": 9162,
      "à®ķà®´à®¤": 9163,
      "à®ļà®°à®©": 9164,
      "Ġà®Īà®°à®ļ": 9165,
      "Ġ413": 9166,
      "Ġ475": 9167,
      "Ġà®ħà®´à®ķà®©": 9168,
      "Ġà®īà®£à®°à®ķ": 9169,
      "à®µà®²à®Ł": 9170,
      "Ġ720": 9171,
      "rice": 9172,
      "1817": 9173,
      "1836": 9174,
      "1807": 9175,
      "ener": 9176,
      "ĠPA": 9177,
      "Ġ1520": 9178,
      "Ġà®īà®¤à®¯à®¤": 9179,
      "ĠIr": 9180,
      "ĠNor": 9181,
      "ĠNAS": 9182,
      "uring": 9183,
      "ĠDav": 9184,
      "ask": 9185,
      "ĠLin": 9186,
      "à®©à®²à®Ł": 9187,
      "Ġcensus": 9188,
      "eme": 9189,
      "357": 9190,
      "ived": 9191,
      "Ġinto": 9192,
      "otes": 9193,
      "Ġmass": 9194,
      "658": 9195,
      "659": 9196,
      "071": 9197,
      "966": 9198,
      "Ġnational": 9199,
      "lie": 9200,
      "udh": 9201,
      "udur": 9202,
      "Ġwidth": 9203,
      "elling": 9204,
      "Ġgl": 9205,
[...]
